[PAD]
[UNK]
[CLS]
[SEP]
[MASK]
<s>
</s>
이
에
.
다
의
는
,
을
하
은
1
가
으
고
를
한
)
(
년
로
으로
있
에서
지
되
기
2
었
대
그
인
사
일
도
과
시
들
아
어
수
했
였
적
와
전
월
19
자
부
20
정
제
라
주
게
중
해
것
된
보
위
"
세
공
경
나
3
개
유
조
한다
등
만
성
상
동
연
'
모
마
면
여
선
때
##하여
발
서
소
오
며
으며
구
미
비
4
영
후
스
국
5
관
할
던
200
신
명
거
교
계
방
장
-
내
프
차
않
무
201
당
또
문
진
았
통
에게
받
6
바
결
원
분
현
까
불
생
함
화
우
남
역
까지
대한
10
포
f
된다
강
작
m
같
7
지만
최
8
반
노
출
번
없
단
실
s
따
c
파
말
알
형
는데
두
회
라고
《
》
군
라는
9
재
부터
이후
사용
예
리
·
##or
a
면서
안
요
설
18
특
종
학
독
운
호
배
음
으나
초
일본
t
##la
많
간
처
권
행
추
활
12
입
더
평
데
타
다고
##er
왕
199
건
미국
때문
매
그리
감
양
그러
임
승
태
~
위해
##00
카
k
김
참
11
열
본
산
시작
변
집
##리아
지역
또한
d
경기
b
표
피
따라
##in
달
각
물
p
사람
외
다른
크
##on
점
##스트
북
및
총
올
경우
천
함께
프로
민
##레이
베
자신
약
그러나
속
##학교
체
항
직
당시
코
for
목
새
15
세계
##mu
다는
기록
저
팀
한국
:
편
뒤
198
가지
##주의
_
현재
16
##mula
formula
확
가장
사이
다음
투
야
이름
용
복
버
조선
존
이나
식
법
##시아
판
못
##민국
메
의해
박
##an
살
17
##부터
국가
r
그리고
합
광
활동
드
근
##en
필
청
토
철
치
대한민국
g
하나
증
삼
n
h
’
또는
심
프랑
선수
통해
‘
백
돌
아니
언
금
째
규
다시
##ar
i
레
197
만들
l
병
창
대해
보다
14
황
높
대표
정부
완
는다
0
브
시대
194
여러
사회
첫
/
디
패
쓰
순
독일
196
로서
플
죽
네
연구
프랑스
13
충
e
시즌
영국
큰
포함
별
루
축
친
전쟁
모두
다가
##at
중국
가능
날
모든
문제
채
o
위치
##al
애
트
취
##es
즉
손
w
도시
페
이상
이용
%
끝
영화
클
이루
처음
운동
동안
대학
길
일부
##랜드
히
##ic
정치
리그
려
u
존재
온
러
세기
시간
##라이
될
주장
195
서울
알려
폭
아이
관계
정도
허
이러
씨
구성
논
이러한
환
위한
중심
나타
개발
협
준
앞
급
맞
테
일반
문화
193
엔
측
거나
대부
공격
새로
##is
##니아
발표
사건
걸
시키
교육
곳
]
년대
[
전투
검
로부터
들어
작품
##he
30
아들
석
맡
질
역사
도록
골
볼
귀
위원
##it
##지만
갖
〈
농
대부분
밝
게임
##통령
“
절
방송
”
뉴
##나라
영향
접
얻
192
j
책
대회
막
잘
발견
##리스
감독
음악
줄
담
하지만
기술
밀
부분
결과
극
육
캐
v
니
지방
대통령
향
효
우승
경제
생각
섬
이것
같이
##버지
##000
최초
상태
특히
사실
어서
곡
지원
독립
##므로
발생
앨
그녀
결정
으로서
국제
>
과정
<
의미
침
계속
2010
유럽
좋
##란드
191
2008
25
##우스
자유
제작
형태
km
잡
봉
일어
암
새로운
키
관련
제국
갈
필요
이전
인해
홍
사망
러시아
##이스
조직
로마
태어
##화국
다양
탄
진행
##le
2009
##이트
참여
폐
등장
헤
머
악
난
중요
벌
매우
설치
100
자리
상대
글
성공
계획
범
뜻
혼
21
2011
##ion
해서
아버지
프로그
탈
뿐
쪽
몇
##리카
##학자
넘
누
the
됐
고려
커
학교
2007
층
발매
구조
블
한편
중앙
회사
좌
윤
돌아
찾
결국
방법
주로
2012
##us
반대
억
처럼
##re
이탈
여성
발전
선거
터
나라
따르
설립
앨범
생산
##el
기관
능
최고
##스터
축구
운영
내용
22
힘
##om
##ol
송
그리스
업
##진다
정보
이유
타이
24
##as
못하
##프트
생활
많이
아래
23
2006
사업
케
##르크
격
빠
전체
대신
출신
주요
2013
기원
이어
둘
으로써
차지
000
슈
인간
##디오
2014
헌
이탈리아
따라서
떠
공식
국민
방식
프로그램
관리
##ou
##리즈
풍
소속
승리
보이
떨
여기
모습
표현
기준
론
시스
초기
인구
군사
##한다
시켰
밖
라이
유명
지구
센
참가
##레스
##et
몸
역할
##운데
각각
해야
팔
으로부터
이미
쿠
이르
##이션
컴
폴
##am
해당
시기
스타
교회
몰
가운데
놓
붙
시스템
인정
평가
대학교
거의
핵
계약
26
느
190
인터
제공
유지
##ing
이론
민주
하여
얼
시리즈
으면
##il
##ch
규모
마지
대상
제도
데뷔
조사
동시
지정
기간
불리
잠
기능
졸
##비아
상황
민족
철도
임명
단체
##os
눈
졌
##머니
직접
올림
2005
##fa
떨어
연합
지금
행정
28
27
사상
수도
마지막
데이
##인다
스페
출전
2015
홈
우리
싱
연결
묘
콘
정책
##대학교
2000
지도
개인
그것
수상
공간
언어
변화
추가
실제
자연
현대
결혼
먹
##야기
大
역시
정의
of
색
x
류
##이지
이라
압
목적
뛰
과학
퍼
학생
서로
빌
세력
쇼
##스크
요구
항공
완전
분류
진출
활약
인도
2004
50
훈
혁
졸업
겠
「
혹
후보
칼
보여
##비스
기업
」
인물
레이
노동
이야기
긴
in
건설
건물
기본
비롯
올림픽
마이
낮
월드
29
알려져
딸
2016
일으
##ed
위원회
교황
부르
교수
대해서
란
플레이
st
시절
싸
없이
##른다
##로스
형성
열린
대전
응
변경
특별
##등학교
##리그
거리
달리
##르트
어떤
엘
소련
녹
비판
바이
부대
최대
망
##대로
##ac
공개
못했
경찰
황제
189
자기
자동
견
지지
공동
나가
##ro
의한
종교
원래
한다는
실시
출연
아닌
이동
의원
왔
##스타
희
스페인
##nd
우주
프리
산업
거쳐
지휘
지배
태어났
아르
시장
노래
##린다
모양
보통
브라
도입
31
관한
판매
습
행위
능력
므로
그룹
제외
오스트
탑
40
2002
혹은
##공화국
퇴
회의
군대
##id
만든
비슷
궁
가진
설명
전문
노선
##운드
그래
열차
##ent
다이
운행
수행
모델
차이
티
배우
옮
엄
나오
차례
야구
바로
보호
##남도
##너지
2003
보내
소설
어머니
휴
##ig
전통
연방
숙
지나
개최
곧
차량
나이
방향
이끌
겸
울
형식
특징
!
환경
컴퓨
작용
공연
작업
행동
마다
기존
혁명
##인민
##리오
##라마
이적
##니다
##st
y
##ad
명칭
?
이사
율
전자
##독교
빈
기반
먼
시켜
서비스
동물
선정
위해서
분야
길이
워
마을
버스
전기
##iv
탐
##od
증가
##ur
조건
국내
주변
피해
인기
##이드
착
cm
확인
전국
풀
비교
실패
사랑
이라고
fc
의회
효과
남쪽
칸
도쿄
음반
컴퓨터
싱글
적용
사고
체제
태양
기독교
너
북쪽
져
담당
2017
한다고
가까
마음
득
넣
지하
##가지
##ec
에너지
평균
오늘
슬
밴
시설
이런
과거
작전
넓
##프리카
높이
어느
맥
fi
통합
속도
金
##ot
선언
tv
값
山
1990
개념
가족
시민
늘
당하
자료
샤
종류
결승
##스탄
왕국
여자
세포
2001
빛
유일
예정
흔
명령
동일
물리
크기
콜
십
李
##bs
애니
부산
기타
국회
자체
함수
클럽
##ia
더욱
낙
영어
##민주
연속
선택
조약
공산
상당
염
출시
잉
규정
올라
일어나
땅
교통
##카이
물질
부족
성장
갑
최근
버전
내부
##북도
다르
어린
통일
벨
웨
어야
옥
푸
점령
시킨
고대
작가
현상
수록
##um
뮤
부상
육군
공화국
188
건축
드라마
기념
##em
추정
맺
해군
잔
동쪽
내려
밝혔
##ation
가문
흑
##ra
역임
남부
장관
##인민공화국
뛰어
##루스
관심
획
헌법
배치
챔
강화
려고
ch
는지
머리
##웨어
중화
대체
씩
어려
연기
작곡
윈
걸쳐
보인다
##나다
##라스
단계
멤
불교
친구
움
문학
정신
왜
데이터
구간
흐
서쪽
척
위하여
월드컵
의사
그렇
실험
사단
팬
##자리
잃
경상
처리
##아들
뉴욕
개혁
개월
특정
비행
##피언
장치
사령
정당
최종
선발
##oc
으므로
인지
비해
##ut
예술
선출
체계
품
듯
정권
##메이션
들어가
목표
##난다
##스로
책임
##im
1980
확장
멤버
나타나
연주
가리
조지
자치
쌍
연대
##시마
1999
지냈
도움
가수
징
소비
원자
불구
달러
요소
고자
흥
일제
la
제한
문자
챔피언
설계
겨
밴드
다면
집단
칭
깊
엔진
승강
정확
사무
무기
주민
집합
##드리
편성
60
##거리
186
옛
행성
디자
출판
1998
통치
남자
이해
32
인데
애니메이션
아직
##ir
안정
대중
후반
려는
휘
##널리
표준
움직
북부
지명
발달
##ow
당했
반응
보고
시도
##op
믿
##ter
##러스
폴란드
조정
부문
끌
소유
제품
만나
수준
분리
가치
준비
방어
언론
행사
곤
그림
de
방문
영토
페르
##bc
거주
윌
거두
이듬
돈
구단
대사
구역
##트리
시험
통과
익
속하
신라
그런
王
갔
영역
구분
노력
mm
찬
캐나다
북한
대로
훈련
##라도
식민
주인
분석
해석
획득
원인
##덜란드
동맹
##의원
=
추진
요청
승강장
컨
이듬해
이곳
도로
언급
네덜란드
파괴
입장
187
지속
스스로
스포
자주
공항
덕
##디어
펼
외국
州
가정
투수
올랐
괴
꽃
경험
fifa
깨
솔
주도
70
실제로
나온
이란
文
덴
유사
거부
경쟁
센터
##나무
받아들
정리
제조
드러
파리
장군
1997
##스코
궤
아시아
##톨릭
35
경영
오른
완전히
정규
기사
몽
강력
요시
재판
##야마
세워
텔
전해
쉽
든
쓴
로써
투표
득점
왕조
이렇
경기도
수학
그대로
의하
소프트
헬
결합
마르
500
메이
경계
의식
밤
지대
런
동생
마찬
공사
표기
마찬가지
##un
맨
##글랜드
홀
베이
사용자
멸
복귀
철학
사진
##ce
1996
널리
주교
##나이
가톨릭
은퇴
##트남
놀
여겨
##주의자
80
성격
바뀌
1995
법률
마리
차원
##메리카
가르
이외
##젝트
패배
만화
계열
먼저
다수
알려진
밝혀
1970
re
##머지
바탕
조각
나머지
소리
인식
國
사라
##ag
해결
아서
부정
표시
파일
결성
권력
포르
정식
##부르크
디자인
찾아
〉
오래
오르
반란
평화
액
성립
인터넷
##스턴
부여
제안
무대
유전
멀
반면
박사
도착
폐지
만큼
미사
촉
바다
임시
##스키
금지
오스트리아
부인
가져
카드
완성
##릭터
아무
즉위
근처
단순
잉글랜드
용어
나타내
입단
자동차
##모토
수용
회장
##웨이
보도
다리
핀
치료
al
아마
하이
1960
유래
짧
1994
혈
꾸
귀족
파견
형제
앤
캐릭터
대하여
단위
끼
프로젝트
통신
이주
기초
생물
주어
바꾸
##리지
알렉
문서
##일랜드
주제
총리
쓰이
접근
요리
&
국립
##크로
죽음
질량
여름
##ap
##라인
##사카
공작
윈도
벌어
일정
##트로
대구
1992
외교
확대
##비전
발사
인사
설정
흡
##낸다
업무
술
##ay
신문
제기
웹
지도자
보였
컵
파이
정상
세웠
나무
충청
대륙
관측
돼
크리스
천황
회원
지식
장소
아프리카
근거
번역
##ul
나중
z
1945
상호
안전
제시
##하이
36
고등학교
고속
체포
겪
식민지
##ers
수많
텔레
보수
해안
체결
##위원
대응
삼성
떠나
시행
##모리
칠
성적
원소
스테
등록
은하
의하여
률
##먼트
세대
다만
묘사
##50
붕
유대
보여주
캠
계승
이하
달성
발행
전차
##ov
베트남
동부
스포츠
식물
인천
판단
소재
방영
논란
##ip
##동안
생성
기계
城
##스카
##토리
위험
밑
타이틀
중간
몇몇
1991
남성
쌓
##베르
중단
조성
##메달
위기
』
의견
진화
un
살해
숨
미군
낳
1993
『
지상
얼마
런던
and
##ie
계산
초대
ue
여행
뇌
죄
수비
더불
홈런
##스티
##ct
##켓몬
상징
개정
관찰
부른다
1988
三
권리
직후
+
계기
소프트웨어
공부
인민
서부
으면서
33
단어
uefa
강한
벽
##호선
보냈
근무
충돌
병력
취임
활용
저항
##가리
##대학
교체
특성
브라질
기자
1950
에스
면적
an
기구
짓
노르
싶
궤도
##시코
혐
젊
앙
38
스위
협력
th
1989
스웨
몬
子
못한
##ist
##인트
시위
세상
히로
가입
왼
##역시
잎
연장
생명
수사
만약
바르
예선
문화재
벤
90
필리
측정
무렵
옆
후기
##무원
아내
##th
##qu
보유
사전
전략
中
실행
소수
종료
옮겨
##니스
무장
듣
유리
입학
순위
##간다
##베이
지적
광주
물론
국왕
특수
무역
따른
약간
ar
읽
본선
야마
일대
com
일종
##레일
양식
;
우수
이슬
지위
선수권
됨
##워드
##na
벗
스웨덴
도중
공장
300
하루
본관
조합
지난
빨
포켓몬
전달
##학과
제주
자본
##특별
빅
제거
삶
##어나
맹
개국
빼
각종
道
##러운
전시
소개
본래
氏
대수
이용하여
내각
전라
..
종합
당선
수정
학년
人
##광역시
學
분포
투자
학문
잇
반도
sp
전사
해방
승격
다루
화학
이래
현실
검사
남북
비용
족
결승전
슈퍼
너무
天
제정
해외
병사
감소
##스테
집중
br
가스
그린
병원
적극
##전히
항상
전환
진다
주인공
차트
의해서
만드
명예
건너
나누
유로
만족
배경
보존
고구
##워크
스트
##og
둘러
아카
東
法
디지
##평양
관광
정착
증명
##소년
기회
거대
45
오늘날
원정
올리
코드
장기
천문
혜
자격
본부
##아가
헝
주목
##ard
34
가까운
이승
르
영상
촬
신경
객
기지
##리트
개선
충분
기여
부모
즐
양자
측면
아일랜드
불러
##멕시코
##위원회
비밀
가졌
마련
고종
安
갖추
번호
음력
코치
촬영
##의회
표면
이슬람
윌리
지내
균
뮤직
베르
둔
합류
##누스
예수
강조
납
노동자
냉
밖에
온도
##특별시
굴
事
썼
학위
##민주주의
°
라디오
작성
##est
프레
is
##티아
포르투
동료
##집트
군인
다카
1987
카를
184
바람
전력
인디
전반
##데스
재산
서울특별시
님
외부
학자
유니
##원군
인수
폭발
위성
근대
붕괴
라며
##임스
연구소
부근
ii
이집트
##티나
가격
최소
귀국
공급
겨울
##준다
해체
고구려
명단
나왔
미사일
장면
에이
침공
강제
48
##라노
뒷
공원
전선
그래서
상업
음식
끊
신호
##바이
꼬
##도로
허용
고전
알렉산
##피아
확보
불린다
수립
장애
회복
오사카
전개
헝가리
대립
자원
##대전
公
##물관
##소리
con
인한
라면
이스
여전히
미술
항성
일본군
논문
비트
광고
이미지
불가
##and
주식
점차
조선민주주의
디지털
개통
조선민주주의인민공화국
오후
ne
스코
군주
수입
...
범위
1986
400
탑재
텔레비전
세이
강점
법원
寺
마치
융
국방
##리학
확실
37
##요일
##라이나
그려
##다가
수단
등급
공군
오스
삼국
교사
書
량
캘
비디오
##리어
##키아
멕시코
윌리엄
임무
그곳
불렀
편집
다니
만주
통제
마이크로
##교회
백제
계급
제목
라운드
시청
혐의
유형
경기장
##디아
대형
이끄
잡지
185
원칙
나폴
장비
장식
우선
사령관
軍
마사
대대
平
록
위협
##ess
습니다
##드로
함대
하늘
답
사후
180
일어났
출생
회전
재정
일어난
변호
비난
베네
아우
독자
세우
구축
네트
1984
##av
##ine
합병
은행
마리아
출발
세종
냈
얼굴
##협회
##ab
다섯
채택
민간
##노스
베이스
기대
불과
1985
##래프트
지점
##아시아
南
##마크
##레일리아
폰
범죄
후지
남편
경향
노예
##타인
전역
宗
국경
##ri
##오스
유학
넘어
강하
le
양성
옹
운전
규칙
끝나
왕위
인근
쇠
183
헨
연합군
##리포
승인
펜
##레이드
42
증거
토지
관할
기후
나뉘
아키
의무
##다이
재직
트리
##art
터키
##요시
셀
조치
뛰어난
지하철
##ak
##오카
##없이
##ity
비율
강점기
단지
39
시각
엘리
합의
正
로스
좀
성당
##서관
연산
1920
봄
블랙
성인
##버트
항복
좋아
세운
민주당
오스트레일리아
케이
극장
저장
복잡
전하
암살
버리
비교적
본격
주의
채널
시내
고문
감정
##메이
올렸
신앙
참석
평양
흘
어떻
뿌
사회주의
라틴
##독부
녹음
라인
옷
1982
자세
탄생
##ge
확정
포르투갈
##해졌
여객
통하여
태평양
영향력
떨어져
붉
빠르
종종
차별
미래
시킬
강원
기획
대장
지시
기억
카이
루이
초반
숫
공산당
지키
##일보
윈도우
##ice
1930
신화
소장
분자
조금
##제국
예상
##te
1940
크로
했었
구체
나치
아주
농업
##로드
아름
매년
춘
건강
후쿠
전혀
##연구
향상
쉬
흰
물러
목록
협상
에드
유도
서식
##마스
투입
150
##if
잘못
사용하여
179
네트워크
이제
경주
알려졌
64
선조
성질
주위
전용
pro
게이
정치인
오히
아야
##투스
편입
오른쪽
1983
미치
##우리
sh
##ss
인가
개편
cd
보장
꿈
義
입자
보급
추측
장착
클래
털
##르타
창설
링
군단
##니어
##각형
시킨다
묻
sc
아랍
법칙
띠
홍콩
톤
전후
청년
뉴스
금융
am
##igh
전설
##테르
전화
위원장
to
중화인민공화국
개봉
연극
포위
1979
출장
府
마침
공기
왼쪽
해도
돌아가
##20
개시
보병
거절
경성
국회의원
십자
활발
181
sk
##보드
오히려
사례
총선
떨어진
##코드
대비
순서
섭
재위
가사
판결
집안
욕
제임스
41
세르
일원
제어
소년
태어난
플레이어
당한
##ber
권한
75
멜
무리
후손
생겨
중반
스위스
소식
스튜
##트라
연맹
##고리
tr
오랜
짐
1972
su
이익
뽑
장악
방면
저서
숫자
1973
둥
건국
집행
시인
앞서
거래
아시
대항
견해
대기
협회
고정
교토
오리
간주
오브
kg
이승만
가로
롭
##자기
절대
一
##네스
##시스
라이브
연료
첨
공업
죽이
지붕
흔히
태어나
모스크
에피
해상
한자
찰
##ell
핵심
##룬다
55
종목
1981
텍
마쓰
##레이션
명성
##나가
##리포니아
동의
사항
스파
주기
요한
##ill
고향
삭
1946
##고등학교
##시오
아라
##반도
엑
요새
일으키
##라엘
토론
인하여
환자
핀란드
영입
숲
on
성능
델
낭
킬
스타일
인조
몽골
나갔
내렸
운용
태풍
##은행
##미터
ap
흡수
##오프
준다
필리핀
분열
방출
서양
카메
se
공공
비록
대학원
선고
논의
##지션
자금
신성
인종
1948
경력
머물
수출
신학
히데
##티드
직원
이스라엘
간단
별도
##에트
수여
한국어
정비
##스토
구별
노부
43
이른
캘리포니아
川
스럽
메이저
##일러
알리
사이트
나와
통한
통해서
∼
1963
애플
정복
진보
들어갔
훨
내리
알아
이민
지니
잠시
##all
부활
어렵
kbs
덴마크
1974
채용
혼란
高
리더
이성
중세
거기
말기
불렸
멸망
더라도
잭
훨씬
元
##퍼스
사장
##우드
##타이
##동차
논쟁
ex
사태
컬
덮
포기
피아
##ian
使
##틀랜드
붙여
정지
오전
우크
그러한
##티브
동원
관료
심각
원리
생기
##조선
인상
##ph
pc
이기
공주
성과
폭력
長
44
아테
제출
君
렀
반복
##미널
투쟁
수송
##싱턴
成
일치
石
임금
본인
인터뷰
그리스도
明
싸움
##사키
mbc
우크라이나
샌
##our
고양
빠른
베를
분명
##ud
##ive
중심지
약속
at
취급
직전
갈등
pr
고등
울산
창조
院
에선
열렸
상품
역대
##io
##ik
##소드
반발
##로그
남아
상승
방사
금속
일으켰
청나라
철수
망명
건조
인권
이번
주전
1978
헤이
롯
도망
51
숭
##공사
수술
아르헨
1949
동성
상륙
47
랭
시점
지진
고유
산맥
mar
덧
##에르
의학
교류
프로세
자살
육상
##도르
효율
##ta
신분
아나
는가
진압
##연합
조작
보조
승진
그런데
##바르
1968
1976
##하라
안타
모스크바
##bo
##무라
천체
아르헨티나
공유
or
대하
창립
박정
be
빠져
전주
셋
##버스
무엇
펠
1975
소녀
에어
##코스
도달
나카
제자
탈출
46
라도
지닌
클라
협정
선교
소비에트
##고기
미디어
구속
기압
유엔
178
##테인
장교
교환
불법
응용
공포
상당히
##드시
헨리
하드
인공
막부
해졌
단일
집권
개조
1971
논리
후원
감사
선생
159
太
쫓
##터리
수원
오토
위상
김일
청소년
강의
출입
–
바라
##정식
fa
변수
유적
1969
해산
임의
스피
관직
처형
떠났
스크
찍
상위
편지
열리
타격
플로
투어
海
짜
분쟁
고도
써
시티
##다리
모르
물체
변호사
목사
의료
별명
연재
신설
160
1941
맛
##슬라
경상북도
저지
일본인
틀
지급
어떠
오픈
학습
취하
변환
실수
버렸
중대
직업
54
1944
##쿠라
인류
열대
##에이
챔피언스
화면
다운
소송
##병대
1000
1962
오스만
아메리카
여부
의지
전철
발언
부하
아름다
현장
어린이
경상남도
튀
훗
독일군
브랜드
온라인
늦
##수록
fr
##ts
53
上
플라
선보
원작
냐
화물
##사이
##세이
워싱턴
뿌리
조조
##무부
모리
터미널
출마
lg
영업
콩
1964
대리
농민
블루
원주
보험
분할
##아버지
진입
프란
연관
me
반드시
모여
압력
##we
꼭
흑인
신청
엄청
가리키
벡
듀
陽
승부
자라
로운
예산
기체
스코틀랜드
프로듀
##비치
도구
성경
기도
끝난
베를린
여야
훗날
##치아
한반도
개체
합성
마침내
벼
이어지
참전
모아
한때
노르웨이
메시
하위
박물관
움직임
공통
명명
셰
전공
전파
스러운
맞이
부진
남겼
백작
생긴
항공기
모드
##리케
적절
빼앗
미터
으려
에피소드
엔터
절차
하계
行
대개
유전자
촌
동작
어떠한
##데미
##드리드
부사
범주
누구
꼬리
신체
1965
##틀러
부임
롤
한정
생존
의장
관점
일찍
1977
都
에도
장수
65
금메달
콘스탄
無
계통
요인
1939
1961
##사자
he
주연
포로
예측
중화민국
된다는
##해서
고용
정체
강원도
52
복무
郡
롯데
지어
갈라
합격
en
보안
끝내
올려
상하이
명확
성우
싸우
대략
00
地
기에
##케이
##쿠스
제대로
마드리드
취득
메모리
1919
德
참고
겐
原
##이어
둘째
##서트
공화
렌
ma
아침
세계대전
파악
|
폭탄
神
플랫
##법원
자이
1967
한계
흐르
世
ac
武
기호
정기
방정식
가을
보관
허가
건립
유대인
##페라
영지
##토스
ad
낸
시호
구성원
99
배출
반영
수소
田
항구
나타났
쓸
의도
목소리
서버
실질
##퍼드
##이센
177
주년
한나라
좌우
56
의존
시리아
日
##킨다
북서
재료
근본
家
줄기
##uc
전면
충격
1947
주둔
##민당
테이
저작
타자
##oh
솔로
##기에
아파
사령부
조지아
통상
대화
메이지
운동가
페르시아
감염
本
예전
##리우스
베이징
모형
49
함락
西
최다
인디언
us
##소프트
청구
전문가
등판
기법
800
무덤
왕자
좁
1966
gr
수집
기둥
중력
점점
외국인
챔피언스리그
검찰
침략
지낸
맞추
닥
##위기
光
司
ph
태조
##fc
말레이
달라
현지
##나이티드
##-1
가상
활성
급제
##레옹
##리스트
1942
신뢰
이뤄
손자
각지
나타난다
시조
진주
유나이티드
구하
로켓
위반
아카데미
##25
##타르
북아
포도
主
58
힐
주관
문헌
會
마케
전부
떨어지
린
택
등지
문장
편찬
충청남도
둘러싸
민주주의
##베르크
나폴레옹
門
탁
##테인먼트
임진
部
신인
한다면
당초
사마
政
##민주당
##하마
it
우려
##per
천연
성향
임대
##ob
##셔널
120
흉
날개
묶
##라드
동아
중부
주택
된다고
캄
##신교
사형
##·1
밝히
김영
김정
이룬다
플레이오프
댄
희생
변형
가진다
연안
오랫
태도
김일성
##프리
언제
호텔
작곡가
보물
공무원
받아들여
출간
선전
##버그
벡터
서기
독특
벨기에
ss
대칭
개막
사임
자녀
요코
88
##ver
풍부
움직이
발발
600
방해
조종
개입
공학
66
##연히
처벌
##머스
악화
밀도
가담
as
호수
ᆞ
##학생
오랫동안
불상
모임
콘서트
##다는
의정
실현
플랫폼
글자
행렬
×
##크스
무시
출력
민중
성분
정원
통계
발음
으니
쓰인다
사법
사제
숙종
상속
1943
1910
##리히
마법
##무리
꺾
전형
다며
침입
트로
순수
##ens
##ich
기울
예비
한글
프로이센
##백질
이중
느끼
단독
백성
조절
조선총
##바라
##ate
##포르
아스
官
복합
훌
쳐
거듭
공정
보컬
의심
향해
전신
나아가
실력
레벨
취소
물리학
스튜디오
서명
입력
1956
사냥
추구
벌였
##ub
##마트
카메라
살아
동남
##로나
앞두
박정희
분위기
나뉜
##ect
해양
늘어
공헌
q
사정
영웅
te
천주
生
縣
전원
仁
68
학살
베스트
신자
펼쳐
원하
녹색
##슈타인
내전
조차
테러
##그룹
제일
구현
꼽
##바로
완료
띄
##pa
확률
1958
부부
新
새롭
98
##레인
후계
도전
저술
도와
본명
문명
보스
순간
에서부터
횡
61
한국인
특이
##네시아
먹이
기기
57
확립
도쿠
단백질
병합
남서
바깥
1954
##에른
감시
프리미
레드
탈락
주력
水
노벨
부담
북동
조선총독부
메인
여론
켄
레코드
1952
##데이
가량
미국인
동기
일본어
포지션
##가와
##거운
유물
86
지켜
고리
유산
공동체
##어스
새겨
백만
제사
추천
축제
다스
##저우
팽
미드
전라남도
아사
##ore
무게
복수
장르
불만
앉
타이완
후속
흘러
오페라
평등
##티노
니콜
희망
##디션
##과학
창단
적합
접하
##베스
악기
1935
해왔
팝
권위
##ps
대량
이닝
cod
기온
##공업
韓
삽
태종
쥐
설득
1937
공산주의
사운드
흐름
北
글로
히틀러
의혹
정수
체코
1938
묵
슬로
추기
182
63
자극
어려운
원수
당나라
연고
도서관
유행
##ang
평안
수리
출범
##ant
듯이
완공
##유럽
개신교
엄청난
정해
명나라
바이에른
달하
루트
속한다
相
##미스
##ry
유한
jr
신부
##천군
패하
국정
도덕
미니
해리
##비드
방지
뜨
프로그래
##지사
통산
섞
아테네
##브리
정조
카르
##사우
수도원
국무
무사
라틴어
벗어나
##ok
합쳐
벌이
you
자전
어도
161
원형
2018
마이크로소프트
간행
콤
##권자
1953
살인
1936
미나
엔터테인먼트
광복
이라크
1918
유치
질병
마무리
돌아왔
탐사
독재
도요
타율
화산
실점
승려
어깨
지리
확산
과학자
정하
五
기소
##ne
무늬
진정
##이치
심리
점수
經
어디
황금
夫
접촉
더불어
재단
김대
복원
이명
나온다
1959
다소
##ight
보상
##지어
덧붙
공중
그리하여
방위
공로
절반
sy
왕비
1955
이혼
왕실
파트
웨스트
##ib
원년
작위
멀리
밝혀졌
##직자
춤
마이클
쾌
##야스
95
혼인
법정
개설
가설
##로지
레오
참조
구원
심사
재건
보고서
##전쟁
화성
만다
##ong
지향
wh
마크
가까이
##리노
처분
로버트
대한제국
세르비아
뮌
탈퇴
중추
연습
漢
선임
##시티
위대
분해
진격
##릭스
업체
kt
년도
##ld
발탁
소스
##사스
조카
폭격
##왜란
대선
타임
본질
체육
회담
개칭
는다는
릴
보낸
그래픽
본사
상관
龍
겹
장남
호소
대체로
74
고통
돌아와
아프
한성
1914
구입
헤르
1933
bo
늑
##테스
##체스터
옮겼
일시
드라이
그만
중기
##의정
혼합
##sp
광장
wor
##마이
격파
인쇄
col
학술
이른바
남동
석유
두려
알파
작사
트랙
1957
임진왜란
알렉산드
##스트라
史
##ure
화재
니시
76
증상
타입
오직
개성
바닥
이시
파라
조선인
돕
분노
브리
##메리
수치
따로
나뉜다
자식
자리잡
dv
느냐
발굴
추방
##다란
62
무한
##피스
사원
##코프
홍보
징역
영국군
뼈
164
##판서
입법
im
皇
맞서
연출
176
검토
결론
영조
##방송
전술
오프
96
히트
臣
85
상원
계층
코스
심지어
매장
유기
플래
뚜
사퇴
59
잠수
스토리
동서
여왕
좋아하
sm
빙
개찰
킹
평론
항의
균형
그레
##페이스
프랑크
향하
##man
일상
상실
인접
##뮤니
지형
연간
72
문신
理
##문화
강등
170
추기경
소멸
켈
현역
##ff
번뇌
정차
복음
스티
굳
##end
스탠
다케
##데타
경로
개량
##ue
나서
忠
사자
수석
즉시
71
탄압
163
갤
임기
어려움
동방
내세
들어서
피아노
73
시카
참모
교구
동양
사도
##iz
心
興
께
##드리히
중성
로봇
아동
결의
수익
당해
이내
敎
려면
聖
馬
77
아미
게다가
대승
브루
##마르
윤치
진학
중학교
힙
전송
엠
1934
##슬러
손상
개방
나타낸다
朴
##클리
주석
올라가
프리드리히
닫
바이러스
##더스
돌려
co
인용
작동
늑대
하나님
주간
白
찬성
##플레이
갑자기
내놓
매일
##마니아
1932
동계
빚
깃
os
시작하여
백인
고기
##젤레스
이어졌
포트
기상
심판
158
소문
경전
67
밀려
톰
래
대책
서구
허락
##폴리스
교향
공국
다다
완벽
쿠데타
700
총장
사기
여섯
피해자
프라
진영
1928
단편
화장
뮌헨
포함하여
性
##마루
sbs
로드
비행기
고급
와이
천만
##조판서
무료
태국
곱
ms
유효
본다
번주
손실
유배
바위
당국
##가락
만났
하여금
소득
비례
고지
와서
피하
틈
cp
습격
폐쇄
캔
아름다운
김구
my
천주교
갖춘
상인
dna
전투기
##친다
善
노출
일단
재배
有
되돌
168
급격
약화
총독
후계자
##러리
화가
마르크
##성군
신사
이행
ro
닥터
##미야
느낌
所
불가리아
화제
심장
##회사
將
달려
순환
캠퍼스
##장군
벌어진
선포
세리
프린
막대
받아들이
프로듀서
記
##티스
##터스
종사
트랜
똑
만든다
메시지
1924
산하
여겨진다
##로마
87
##너스
##ack
선박
엑스
석방
질서
朝
긍
동해
산소
커뮤니
##토니
부동
156
방송국
##느님
##베리아
종이
아파트
곽
97
배포
꾸준
知
홋
##오르
목성
하느님
江
닛
수요
시카고
##프레
끝났
깊이
변하
후임
수업
##ly
帝
가속
##ae
##베리
서술
생겼
업적
세인트
이에
힘들
##크래프트
##벤트
1921
감각
##lan
재능
가마
쓰러
자이언
군수
##키스탄
일으켜
鄭
재학
통화
##다른
162
1925
##닉스
주소
##여서
시드
샘
개척
고시
훈장
동북
보여준다
승객
1951
가슴
대우
의문
휴대
윗
입니다
和
그러므로
점성
new
관여
##부장
民
융합
법인
텍사스
林
리버
연락
프리미어
속한
궁전
즈
물건
이온
크리
인도네시아
곡선
세조
큐
알바
定
갈색
##ock
이념
끌어
남기
소집
인명
찰스
프랑스군
웅
질문
1931
이른다
##tr
cr
1922
##비히
한신
호주
##브라
매체
사과
치렀
##베르트
##와이
암호
연설
형사
91
자국
친일
판사
175
김성
화려
##ord
사양
sch
1923
에드워드
첼
혁신
조상
조항
청주
포켓몬스터
##가타
##레오
비롯하여
##pe
qu
못한다
복지
영주
교리
그라
스카
1900
인원
도모
최후
그레이
루이스
we
宮
창작
157
84
거치
선형
##베트
미리
##ial
프랑스어
93
비상
집회
1929
수호
닌
샤를
140
##one
비평
돌아오
개명
##ith
구멍
165
레알
##원경
##미아
##민족
서울대학교
스케
안티
저녁
##키스
가난
1907
그리스어
몰아
연예
주자
154
할아버지
##ba
빅토
全
비잔
칭호
타이거
시계
ed
사유
시나
81
수영
함경
wwe
김대중
가요
##질랜드
브라운
분기
codice
##ind
##이너
##해군
나섰
부지
주일
尹
시신
dvd
기하
발명
중지
탄핵
張
하우스
78
모토
아티
주최
덩
쓰여
파워
주어졌
주체
139
man
검색
네이
1927
##도사
##연구소
충분히
bl
go
기부
士
걸친
피부
경비
형상
뻗
不
##네이
실천
테스트
드래프트
역학
##가니
테마
대법원
慶
꾼
→
이치
##다수
빌보드
##일스
##라이언
놀이
소방
커다란
회로
구름
규제
손해
흰색
벼슬
알고리
##머리
가깝
교차
특별히
개별
##일리
##자키
공세
리처
긍정
부친
전라북도
ic
유비
정확히
강도
안내
축소
##성기
더블
자는
신고
가이
대결
포인트
구상
스탈
양산
맨체스터
파르
##bm
ag
구매
혼자
1926
뉴질랜드
강요
거짓
대다수
유통
자본주의
小
가시
거점
발간
언덕
한데
넷
69
단순히
##미르
들어오
자랑
총회
166
1912
멈
증언
봉기
건축물
##필드
소형
##ational
알고리즘
##사우루스
평면
##사이트
안동
十
탄소
황해
94
sa
구장
간부
훌륭
이벤트
##ove
대지
인증
##사관
배열
암컷
디스크
불안
스토
힙합
유력
고양이
##텐츠
전제
##ort
미쓰
발휘
동성애
잭슨
##니즘
##타카
1905
동인
미시
데이비드
cl
소화
이산
해설
##숭이
보살
원시
풍속
관계자
지휘관
##로프
입구
항해
디스
속해
엄격
##리안
학부
무력
##왕후
1917
노스
여단
정통
초등
덕분
소위
공신
비중
inter
##ory
열매
행하
황후
소련군
##앤젤레스
##리다
사신
힌
##고속
터널
펼쳤
후퇴
##ern
89
돌아온
가리킨다
##센트
성종
직무
토벌
화석
루마니아
化
##연맹
##ast
골든
폭풍
四
읍
일련
로스앤젤레스
mc
##tv
종족
라이트
감옥
토대
베네치아
말레이시아
부서
사찰
야당
佛
트레이드
##디스
휘하
웃
클래식
창당
저자
픽
##어도
기병
스마트
마시
줄이
方
대동
생물학
##천시
일컫
145
원주민
일기
꼴
정면
치러
타원
김종
화합
핑
島
時
히로시마
출현
변신
하인
下
同
이웃
하원
십자군
信
堂
빠지
겉
ps
京
가와
167
광범
방언
스키
폴리
昌
92
싱가
153
복사
河
경고
드물
시상
151
츠
차단
이르러
페이지
##ath
노무
조화
간다
아이돌
반지
센트
누르
장점
##레아
우라
op
제이
종전
올스타
고위
요미
장례
전당
##은색
국적
스탈린
##ies
기동
초점
물려
지불
마저
판정
필수
##ii
##펙트
양국
110
안드로
쟁
##포스
계곡
돌아갔
전동차
##구치
재임
접속
신장
입대
중시
기갑
・
요금
세워졌
텐
남녀
드래
상수
자매
국도
성직자
득표
철저
가공
고객
블라
흔적
##ide
분화
##ys
代
##전자
##힌다
킬로
타점
##주군
행복
짝
철거
리처드
##총리
당대
마주
영원
인생
##ment
##사르
선호
창원
합리
해발
소비자
洞
산지
오류
130
인터페이스
뮤지
쯤
##티움
ra
쓰였
파크
##항공
ep
보편
##둥이
중계
##보이
1908
ht
174
83
부속
일행
##비디오
##ma
크라
171
##바일
결심
놓여
진단
##문학
대원
액체
##카이도
##저스
##ust
82
새끼
재개
##ug
##믹스
쌀
영구
자이언츠
師
羅
뚜렷
패션
브레
시사
놀라
영혼
##동당
비틀
수컷
##ical
古
사격
이자
101
가끔
배상
화이트
##뜨리
##프로
던지
중종
화폐
정교회
유고
국토
##바키아
hd
음성
전적
이사회
##서양
목숨
이와
##투아
##필더
##산군
법안
고속도로
운송
論
##카스
사무소
살아남
극복
에르
지사
밥
155
미드필더
한나라당
##ivers
첫째
해제
퀸
##소스
##데르
프로그래밍
농장
싫
##토미
마감
배웠
생태
착용
탓
탱
멀티
끈
##ond
롱
교과
용도
요미우리
모음
서인
사우스
왕가
적응
치르
미야
덜
79
독점
아무런
박근
세금
프로세서
##ans
랑
장갑
마그
구사
단행
윤리
146
철학자
카운
par
싱가포르
##여자
빌딩
주문
집필
樂
옵
##부사
질환
##아티아
식품
뮤직비디오
##마을
##버드
노리
별로
지중
독일어
永
문하
주된
정치가
압축
之
경사
보건
환승
##ence
守
##란색
본토
세월
코르
군부
요원
이어서
코미
마르크스
전향
##iss
세부
남아프리카
崔
##도니아
충청북도
09
추대
크로아티아
어두
체험
망원경
오키
주류
진동
계수
삭제
kbo
넥
명문
상주
좌석
校
사우
광범위
극단
셔
부탁
신임
선교사
돌파
car
제의
잠수함
##ep
二
블록
오이
##산성
다양체
똑같
급속
총재
침해
##교육
前
압도
전승
다이묘
랩
동지
진실
##위대
전작
##우치
박근혜
##시스코
##페이지
##오리
나선
간섭
관중
바르셀
레인
서방
세트
이명박
淸
##기념
선로
##운동
관객
현존
훼
역전
행해
는다고
##무르
간격
##구리
법학
북미
꺼
예외
부품
수감
##ary
ab
##중앙
후쿠오카
가해
무너
스프
클레
里
##수량
01
식량
comp
일자
임신
##산시
무용
바르셀로나
pa
대가
클리
물고기
새벽
공룡
멸종
수직
전류
禮
##공원
##나카
남겨
##신문
부호
오염
주파
141
라이벌
각자
무릎
억제
초청
보스턴
연소
인치
é
석사
스승
##-2
##멘트
농구
중동
기용
교역
소요
분산
서적
성명
쇠퇴
재생
##세자
매각
실업
##나르
##미니
##페이
특급
1911
좌파
파운드
##회장
비서
일체
구동
우익
전해진다
앵
로렌
게르
구글
랜
##란다
##ick
스테이지
쏘
##드러
예언
##타운
ge
노트
합동
전두
튜
mv
em
반환
250
##돌프
옮기
##고속도로
##동생
##ass
학원
아시안
##메리칸
##국장
명시
모바일
##중학교
내장
약탈
늘어나
부처
코너
쿠바
유가
##느리
그럼
대변
##ace
##거지
넘겨
셋째
카라
선두
중립
원자력
像
##태자
평론가
선물
수반
유키
데뷔전
스크린
겨우
오카
태자
교섭
노비
포항
##과이
크레
祖
원조
적색
##트니
sn
지칭
연금
평소
엘리자
도호
투구
뮤지컬
요코하마
##ica
부패
노무현
톱
챔피언십
##ca
닮
전직
떼
생애
쿼
08
무산
외계
드러나
프랭
동화
아티스트
산화
##마사
흥미
##레이크
선거구
지휘자
松
모자
삽입
의병
경제학
성씨
운항
클래스
추적
곧바로
빵
고교
당신
하와이
##드라
꾸준히
##대부
##스팅
레지
불화
##스케
동반
사면
별자리
첩
상처
八
상소
크루
##ng
남한
사직
지표
通
옛날
비잔티움
##다시
##키퍼
단종
사촌
##대문
되찾
신하
##토시
부유
현종
趙
방안
##다니
올린
동치
##ix
성서
촉진
사라지
의석
거둔
미카
영양
전함
일곱
적어도
프라이
르네
유용
밀리
약칭
마케도니아
##치오
항공사
데려
패러
히데요시
콘스탄티노
반사
오버
호환
社
혈액
후일
##이상
##라트
댄스
시달
쓴다
음모
##긴다
가게
사막
joh
가르치
프로토
대령
문과
바오
걷
산성
국방부
sou
문법
유닛
169
##페인
오케
껍
중장
티베트
派
##져서
색깔
일환
평생
152
발전소
##동기
유입
1906
##게이
유역
인력
글씨
차체
nh
무인
낼
골키퍼
##리니
그래프
나타난
##ton
선제
좌익
특허
피트
주어진
퀘
파동
라이온
孝
고안
데리
전도
두려워
univers
복소
위안
##국제
자산
살펴
진술
크로스
權
섬유
제후
조명
重
el
149
afc
##란트
금강
포스트
*
제약
04
퇴각
밀라노
##로이
##일본
모시
하사
권유
뛰어나
부장
진나라
정계
지름
연계
기단
용량
동명
한강
경남
##와라
정벌
스타크래프트
##철도
혜성
호흡
펼치
뱀
##받침
##타마
공전
맞춰
멘
마일
왕족
##land
갱
익스
##학회
##age
천안
어릴
서울시
드러내
스카이
고서
전망
1909
붙잡
우에
일으킨
##gr
孫
람
##예프
love
##라카
##부인
##ish
코미디
##ft
초상
가면
시게
가구
경유
서북
탑승
효소
증기
##라이트
유신
##시스트
##ier
걸리
납치
##추어
들어와
칠레
농촌
world
프리미어리그
근육
들여
마쳤
예방
근로
설비
페이
광역
승차
##기술
##루살
심한
지능
華
##런스
메리
세자
後
##사기
봉사
1895
지수
사로
싸웠
1896
나폴리
내셔널
1904
펄
애국
당사자
과도
믿음
172
전두환
##산업
##페르
이마
147
빨리
거친
몰락
이즈
알렉산더
홈페이지
회색
칙
이수
한화
녀
##슬로
개화
알레
위키
見
기리
圖
##성전
분지
아웃
유인
아리
##나와
상임
글로벌
id
쇼군
오가
144
內
각본
때로
##루살렘
선보였
소통
편의
해적
개찰구
##아이
지연
통행
분데스
대만
세례
항목
아오
##ite
서독
모듈
신도
직선
루트비히
공용
대단
동굴
##정부
토마스
뚫
모래
주재
##랑이
레닌
미분
전남
성벽
세로
캠프
굽
낸다
##아르
사관
얼음
트라
창간
끼리
반격
사립
목격
bbc
분데스리
핫
하천
曹
강연
##히로
##lar
디아
mus
봉해졌
1915
##나리
학사
하드웨어
er
다녔
여서
테오
플로리다
잠재
킬로미터
年
##보통
dj
걸려
모노
칩
수신
해임
尙
여신
지중해
웹사이트
버지
심하
이정
##ck
게시
모집
와중
유발
훼손
벌어졌
섹
##보살
di
부수
黃
골드
매니
무효
이재
조기
##자동차
개장
수수
예루살렘
##잡이
아마추어
##악단
해전
곤충
문제점
##교도
##눅스
so
劉
교향곡
여동생
회원국
字
겸임
서서
제주도
자유주의
陵
##메니아
##대군
김영삼
##sh
옹호
수학자
判
아메리칸
아프가니
북아메리카
##프란
보좌
친정
퍼져
pd
동전
문인
존경
통칭
그쳤
보르
복구
앤드
六
##루미
내륙
173
물러나
로즈
##커스
동영
운명
자마
팩
빅토리아
딱
##lat
배제
분배
##츠키
##데이트
낱
##타리
자문
용인
레이더
스미스
표본
月
##니치
명종
입증
책봉
파생
빗
吉
푼
##가시
강남
도심
삼각
할당
##프라
점유
탐험
합니다
건의
공략
투명
주니어
##레나
대왕
아울
##ere
중국어
국민당
##트롤
달아
초래
파울
그려져
##지마
랭킹
성남
연령
착수
리눅스
##제학
##프스
압박
자면
코어
알바니아
##유키
양도
##메르
아도
노조
아기
귀환
fre
매치
없애
젠
##르드
파티
토론토
殿
묘지
협약
##아리
07
공자
메달
시집
전장
채무
1500
든지
##가미
수장
락
진지
충성
1913
가하
수면
중추원
대공
##olog
103
원자로
프로세스
흩
이세
딴
대답
원로
유성
전진
分
교전
추격
##세스
권고
식사
머물렀
음악가
홀로
##ame
밀접
꾀
##업체
##int
전북
아이디
自
##르바
급행
여인
서서히
세워진
##ke
##박물관
##회의
전지
143
업데이트
身
광산
폐기
아프가니스탄
木
##우라
넓이
산악
약한
부동산
신칸
버지니아
대행
들어간
洪
또다시
부산광역시
가쓰
무신
부작
사사
바이올
규격
정교
향년
兵
강릉
라이프
고고
gu
바그
##ml
##리크
교도
만난
비스
특유
cpu
柳
기름
자책
항일
mvp
핸
##로디
지어졌
개발자
##로운
##ase
시체
났
##고등
돼지
기재
받침
##뱅크
바티
안토니
##하루
fl
동독
아르메니아
ip
흙
05
루터
지부
무선
성균
통로
해협
번지
##ime
##ome
고무
모순
실내
적대
주파수
##ah
마틴
패턴
상대방
지주
필라
홋카이도
봐
신비
전임
칭하
##슬라비아
중국인
##태우
시마
지목
5000
과목
이종
얼마나
발렌
자손
피터
기하학
##포드
소지
커피
피난
그동안
판매량
가야
국기
페이스
##브스
비틀즈
基
가질
명사
자고
협의
스트리
중성자
##구장
##act
콜로
호조
mon
안드
종로
사이드
벌어지
쏟
인자
자전거
간접
부위
격렬
리드
출전하여
유고슬라비아
긴급
아트
자기장
검증
영감
관찰사
영화제
잡아
콜롬
테크
레이블
##포트
##너먼트
돔
잊
대조
##어리
과제
148
##박쥐
장사
소재지
集
##슬링
##트릭
못해
플루
스페셜
오디션
の
06
색상
야기
정찰
##리티
##ost
가득
한양
아우구
##클린
03
에스파
웨일스
議
##몬드
국군
용기
##레이터
표지
기관차
동경
전례
죽였
실용
주주
진군
콘텐츠
##즈키
추락
코파
회견
지역구
램
##축구
pe
관습
인텔
공화당
名
##크라
유교
파업
아비
호남
드래곤
죠
##디움
지각
흥행
위주
해진
##전기
no
기종
에우
아이템
천문학
선종
all
##악기
##양군
138
몬테
외무
功
合
制
띤
자바
cor
트레이
##문관
점프
승무원
기점
민간인
화합물
메탈
차기
##펙트럼
밭
##즈니
고립
베타
##리스토
팽창
마스터
곳곳
구리
대사관
스티븐
郞
무관
부드
신칸센
##업자
각국
##공주
##슬림
수명
떨어졌
왕복
125
##총장
비로
필립
##les
지분
監
상영
物
雲
##투아니아
3000
이순
타워
1916
악마
전압
衛
툴
부흥
연애
제곱
프레임
리투아니아
소설가
수용소
개업
발레
병역
일족
105
gre
폼
ec
민속
이토
브라우
친선
커버
재즈
포맷
사라졌
hpa
밸
##플러
나고
파트너
펑
월간
렌즈
##ction
스펙트럼
##ai
복제
플레
스파르타
얇
##왕성
가나
경부
사다
도서
##야수
##anc
석탄
900
엘리자베스
##랑크
타인
삼각형
배정
협조
곁
근접
진리
127
덧붙여
순조
오리지
깔
모으
조용
최신
성균관
일찍이
##au
體
남인
모로
사로잡
반경
per
章
##테쓰
히어
두산
벨라
후한
##예술
스톤
약물
풋
붙이
평야
풀려
무슬림
서재
안보
가르침
성공회
##me
##하면
eu
마루
친척
국장
寧
휩
##공항
고조
기생
번식
편곡
원나라
조언
128
호평
생명체
민족주의
계단
##se
메가
보잉
사물
합작
그랜드
##노리
##노프
패전
##프란시스코
얘
게재
침몰
호칭
케이블
껍질
面
##oun
그러자
##서리
모터
중심부
오케스트라
내지
john
카페
포도주
일어난다
커뮤니티
鎭
뿔
어드
의거
미만
운반
은메달
##to
마디
송시
알렸
이조
측근
후자
원산
135
아울러
이지
##로즈
##비시
##칠리아
##타지
##팩트
방침
센트럴
천문학자
市
承
順
웨이
뤼
규슈
육성
퍼시
直
##와대
변동
좌표
지식인
이화
제갈
독일인
아틀
##고쿠
##동맹
유언
토너먼트
`
##라고
박영
카자
언제나
지나치
광년
궁정
제네
크림
##시타
##폴리
cc
기습
단점
##라이더
관광객
##ous
매출
서남
정자
페리
두드러
책임자
##산물
금액
빨간
관리자
수록곡
우주선
샌프란시스코
관념
일화
하부
##리케이션
dr
지질
지지자
業
당원
아케
탈환
자마자
빌헬
에다
트윈
av
공인
목포
유격
기다리
상류
하버드
완화
108
아이디어
윤치호
##푸스
사료
春
물러났
험
##역학
단장
민영
소환
이복
1894
선진
주권
제휴
준공
포수
액션
##ung
고베
마찰
상상
오다
곰
##모니
매개
종결
양상
착공
한성부
##ata
동등
야생
##어트
디젤
유출
연구자
侍
남긴
상무
신용
존중
교장
마친
136
사무실
닉
료
##외선
일명
합계
펴
##ult
상부
가져왔
발효
추증
컸
대안
연루
직위
블라디
기수
끊임
다녀
장로
건너가
##실록
다룬
천사
품질
객관
리듬
야스
立
##도어
장인
짜리
굉
##창기
비즈
인격
차남
어두운
토착
합법
동영상
사절
소닉
타운
버린다
##보통학교
파키스탄
的
담배
사당
내내
촉구
##old
이오
저택
##황후
수비수
가장자리
이에야스
##브레
비극
여우
중재
觀
개수
기요
##그라드
가르쳤
周
##석기
즐기
오리지널
안장
긴장
노인
버려
음원
최적
宣
##때로
##ium
ce
와카
화살
gen
송시열
타이틀곡
##센터
섭정
서브
용산
착륙
환상
흔들
##무게
##카드
가라
폭스
##하르트
플라스
갑작
더해
사헌
수평
총독부
##토모
영광
##ool
각기
부리
싫어
써서
이를
##생물
북방
이리
북서쪽
버린
up
공민
여덟
애플리케이션
者
짙
찌
눈물
左
구제
반박
지바
때때로
말라
연패
조국
내외
마산
보충
여의
정류
출산
폐위
멈추
숭배
공격수
광해군
景
##모어
##상스
##온다
취약
포격
굵
고가
왕립
홍수
과일
달린
학파
급진
일관
도왔
ser
##모함
모방
제수
몸무게
콜롬비아
배틀
나고야
찾아가
퍼센트
관장
사명
휴전
대서양
동메달
떠난
존슨
충실
무거운
선수단
源
靑
성사
시공
입문
초창기
##어버
##tp
기아
인형
입지
피렌
트랜스
동아시아
상당수
##for
정밀
출판사
고사
역설
응답
星
생일
우루
즈음
회계
廣
견제
예배
자발
리버풀
발해
번대
사인
친일파
根
고원
##베이터
이어받
思
몰려
상세
성모
소행
통하
명목
##제르
금성
법령
식당
야간
유니폼
##모스
##부분
##ile
속성
지폐
효력
황해도
##스톤
동사
파장
이이
##hz
계절
단기
경찰서
관련하여
##ign
##ism
닌텐
면역
##청년
민법
얘기
##톱스
매카
연세
출구
##ance
##톨레
고백
중순
빌헬름
##바시
메디
진흥
창시
##대사
빠졌
행진
피렌체
군정
피고
##나미
주행
##주시
기금
바퀴
편리
##stem
입사
코트
하노
바이올린
에이스
傳
##ics
취지
쾌속
시가지
젖
모험
쉬운
필름
부자
소금
수상자
mp
충족
푸른
강사
둘러싼
이어져
##cc
##자료
fe
고발
마라
컨트롤
콘스탄티노폴리스
##isc
위임
정서
어워드
1890
파나
des
청와대
부통령
治
계몽
불편
유해
이식
트위
교황청
넘어가
투르크
副
##파이
수습
智
마카
성주
한동안
나들
##그라
##아웃
배급
쫓겨
說
감지
강경
별개
소총
명백
버튼
주축
치열
##차이
박해
재판소
슐
농도
대위
주한
거슬러
들어왔
행정부
허리케
닿
제트
##라톱스
137
##걱정
께서
典
##중국
##ank
단원
묘소
지혜
우연히
유소년
##스부르크
르네상스
##up
토머스
##누리
##라리
제작자
##ga
벗어
실종
sf
냉각
##ve
웰
잦
굉장
후방
##가루
격퇴
대외
링크
명의
증권
##번호
##ann
난민
왜냐
조류
조반
사거리
소속사
전성기
관해서
걱정
비오
사위
징계
주지사
九
뷰
깨달
서원
##스티벌
##sc
##대왕
아인
안양
사망자
1899
眞
野
##보기
바꿔
부과
시청자
##카미
낱말
로고
바뀐
카이사르
后
배신
회화
턱
첼시
힌두
##미디어
자회사
전한다
##리타
루수
사르
중점
창건
강수량
최소한
스페인어
끌려
영문
시드니
후보자
항공모함
##리코
부른
수렴
순교
여겼
적자
##나스
호르
사이클
대포
거느리
花
도주
입성
이민자
롬
해준다
##att
관현
발족
번영
##노미야
111
英
gl
동력
나타낼
##은이
##bert
스타디움
며칠
발현
적분
##병원
et
마오
매력
명령어
동아일보
##나우
##ale
시가
페루
손가락
##az
節
가벼
모니
여진
치세
令
##수수
도루
후대
##렌지
바오로
별다른
##마치
오빠
이틀
시칠리아
직장
표명
줄여서
황태자
전라도
1898
cent
횟
##월드
세미
인재
취재
##일체
##be
탕
마력
평행
스파이
우라늄
##서원
외곽
추모
포크
##대원군
ak
고분
별칭
이긴
res
##스테이션
문양
선원
아벨
아폴
추상
貞
##ose
sl
교원
서식지
점성술
色
##런트
블랙홀
시나리오
system
붙였
스틸
비즈니스
존스
차관
에스파냐
왜냐하면
##브리지
리스트
part
국무총리
康
##태후
천도
1902
캡
##하시
백색
요크
주사
利
宋
kn
ind
남아메리카
매사
인연
##슬리
고체
의상
모았
심의
채권
##우트
요동
일어날
##타스
##티오
스핀
효종
chr
다이아
##애나
##재판
po
오타
이슈
후세
##토니아
공의회
붓
경북
리스
반감
분광
암석
한지
내려가
햄
헤드
관통
포괄
당일
보완
##럼비아
別
엉
##클라
대역
보전
술탄
탐지
界
남동쪽
둥근
나들목
무려
시트
악장
정말
꽤
##지방
농사
조선일보
##공신
##카타
객체
누리
두루
어울
레이저
##ms
병행
연수
컴파
송나라
##son
ds
제독
횟수
힘입
다스리
##초등학교
##pl
##화점
가군
토성
헤라
환영
예술가
實
##살이
최저
pla
스프링
참가하여
따뜻
자치구
적당
화해
리더십
거행
수성
장난
지나가
##글스
과장
출입구
萬
##세츠
산타
용병
체인
##af
mo
김해
##마쓰
##보르
메르
은데
차종
이사장
장애인
university
퓨
성전
121
구미
억압
대군
부재
이영
심리학
지어진
엘리베이터
村
미쳤
서사
신전
향한
텍스트
##sk
연승
나눌
소실
##안군
급격히
연주자
intern
성숙
##루아
자랐
bar
여운
우세
고민
날짜
크리스티
안드로이드
생전
유저
이원
연구원
보일
실려
필라델
쿨
겸하
구릉
부착
숨겨
우위
중구
확신
도호쿠
아랍어
기록하여
02
맥스
신흥
이광
당한다
주어지
냄
빌리
좌절
카스
트럭
하인리히
##학원
윙
그랑
바치
원반
자비
臺
챌
전념
디즈니
헐
국어
종래
클로
해소
오렌지
스마트폰
중도
##니스트
디자이너
스트라이
##어져
##통신
공습
실전
鮮
봤
셈
일방
필드
북동쪽
다운로드
자아
118
밟
##릴라
##얀마
##의자
사육
시모
의뢰
바라보
##제프
극히
상자
福
##론자
평원
휴식
생겨났
gd
석탑
진짜
게이지
서일본
位
應
##정보
aw
가미
대처
재미
포유
시상식
동구
센서
염색
페르디
憲
퀴
fm
느낀
무죄
을지
##대장
다항
동년
동형
스러
일조
중량
스피드
일요일
건담
김동
ibm
전자기
歌
##렉스
육지
필라델피아
배후
이반
자사
처녀
클린
십자가
##수아
미네
기념물
1901
프로리그
谷
##도스
테이블
맵
##노부
##파크
다중
공산주의자
##다지
로빈
신한
엄마
육체
피신
나이트
度
##학부
117
베드로
作
女
가루
앨런
칼리
rec
##ius
갈릴
일가
탱크
미하
아즈
##리언
근교
도메
무상
142
자유당
##대기
물자
상하
주차
수군
내린
막내
매주
법무
수동
일렉
남서쪽
늘어났
寶
御
딜
펀
##체육
드럼
선구
지우
102
가즈
구출
##ound
개관
동래
북극
##그레이드
##케이팅
현저
##하우스
모른다
오디오
도쿠가와
戰
開
소니
그레고
구경
나쁜
서해
어긋
造
##are
주립
결혼식
연고지
숙청
신생
후궁
空
매달
중독
투옥
met
참가자
유연
할지
회고
##추세츠
##들이
자율
최악
허리
省
##신라
펜실
1897
徐
##그마
결코
연봉
360
will
##키지
고쳐
관람
귀중
누군
속했
와인
壽
美
ng
뉴턴
이인
연인
위장
교과서
그만두
사업자
##로니
##박스
노드
에릭
진공
建
館
펌
##카르
해명
갇
수령
호위
교외
신속
척추
하얀
향후
106
물리치
동위
제압
등번호
修
댐
##널드
상반
작센
정전
with
##야시
전한
챌린
평범
##cl
奉
##문트
응원
평정
##라비아
式
##ina
쓰인
포장
부당
부딪
청하
토르
한인
112
1903
훔
##무스
몰래
net
##란히
존속
아마도
프로토콜
##-3
그렸
123
연산자
吳
##ood
산다
원했
113
공민왕
비로소
의정부
外
親
갓
선비
출토
바티칸
##선스
##십자
고수
장편
현금
힘든
기상청
미얀마
판타지
레논
디스플레이
구호
패했
접한다
파이어
화장실
참여하여
허리케인
##국민
##바나
스런
원고
증대
##도르프
##ise
박탈
실체
양반
포드
북한군
대신하여
반해
사리
샬
##로우
드리
부시
새누리
야마토
드라이브
侯
난다
러브
협박
소유자
##amp
동점
저하
이슬람교
##oss
내보
돌격
비평가
이순신
良
##비키
우호
바닷
박스
##재판소
초상화
캠페인
語
내정
일컬
중위
##케이션
세이브
에스토니아
##여래
공수
청사
109
##즈카
시초
쌍둥이
칼리지
따위
바실
##도리
동일본
크리스토
공백
할머니
##바흐
노동당
세이부
장성
##클레스
노태우
마케팅
솟
등용
문예
생식
메트로
페스티벌
김용
119
one
맏
소원
승점
ass
크리스마스
##라미
전했
피에르
塔
cla
깨닫
승계
장려
장학
조리
리비아
곤란
서열
수색
주거
bla
업그레이드
앓
난징
앙리
##ek
첨가
항소
##자스
알라
운하
라이선스
구로
퍼시픽
##케라톱스
##pr
보스니아
命
낙선
컬러
133
라이온즈
##row
요건
115
내려오
연합국
##바지
##oci
다큐
못할
행적
새누리당
濟
##전문
교단
라마
연상
##타나
경신
옵션
춘추
들어온
老
識
먼지
북위
시뮬
제동
해온
104
##혁명
구해
목조
미주
어요
일반인
나가사키
##들여
재상
bc
가동
근원
트윈스
形
직책
탈당
##베르토
pol
잃어버
動
엔딩
옥스
검은색
팔레스
##올라
단식
풍경
玉
##라브
##ild
고래
뒤집
만일
캐스팅
##그리
관해
복장
정변
치명
her
배터리
고장
공모
범인
돌리
순회
##화하여
마리오
북동부
휠
국소
오해
유수
패스
아베
물려받
오키나와
대폭
변속
성취
축하
do
명제
빠진
영남
##메이크
언더
##푸르트
스타리그
##려서
봉쇄
우정
지장
추출
탐구
받아들였
阿
앱
극심
드림
야쿠
도카이
갤럭
둘레
성단
회수
##지니어
##ron
김규
닛폰
신선
정사
뜨거운
최대한
우루과이
##고스
##리에
에버
war
대학생
여겨졌
한국전쟁
唐
광물
느껴
세속
어업
저명
흥선
126
새겨져
테니스
엽
##다드
##아키
말미
어휘
입당
폭동
##멘터리
mod
라이브러리
##공산
단단
비단
오세
축출
마이크
소모
조달
泰
뉘
sd
대두
신념
추세
찾아볼
※
音
쇄
축적
베네딕
##엘라
링컨
미루
합창
경상도
##시피
그냥
시중
오라
장미
인천광역시
#
사카
섭취
커널
드러났
1884
초등학교
##own
ke
모용
들어간다
문화재자료
마약
천장
科
총괄
해고
리메이크
##히토
방패
선사
카운티
양주
영리
호출
cf
즉각
브라우저
가신
가죽
제대
총애
자책점
1871
##타임
상점
타카
124
그러면
進
##행위
ev
규범
초과
통근
##마드
구할
마비
체류
폭행
통일신라
거론
요르
집계
공리
전대
차이점
테이프
詩
##펜하
##헌영
바꾼
iii
신규
어렸
인문
도요토미
国
솜
##일드
부채
청원
간단히
右
봉건
칭찬
그다지
트위터
가마쿠라
남양
미션
참의
학명
str
##레기
##보선
성문
약자
원내
룩
옳
##드르
격투
공방
낭만
왜곡
##나가와
##fl
광학
손권
어미
##파이어
북서부
실린
열정
창고
협동
##연구원
개막전
멋
영장
치안
타이거즈
쳤
가짜
라우
정한
##타로
고령
청산
고치
구도
우편
프랜
항쟁
게르만
char
##벌레
개교
담겨
har
언론인
수련
노란색
##스기
고소
오오
그렇지만
參
申
##운트
세계관
조종사
school
기다
디오
##ict
고르
해수
건축가
해병대
돋
그로
몬스터
##ll
by
감행
대피
비유
상용
누군가
블로그
매사추세츠
≪
秀
##틱스
누가
포병
아인슈타인
서자
어른
여지
올스타전
센티
철회
오프닝
삿
##시즘
##ley
머신
사적
한층
외교관
러시아어
間
럭
던져
삼진
상장
지평
경성부
아이스
영국인
끓
##사회
공적
섬식
유아
재혼
살펴보
물리학자
##트랙
사천
아사히
부도
시위대
##벨트
욕구
정무
함유
더욱이
土
##라는
가도
연꽃
학과
來
##의장
탑신
양키스
流
산란
어원
전년
서울대
어려서
예정자
얹
등기
매입
유동
밀양
##슬로바키아
##킨스
주름
컨셉
##바스
시합
잔류
129
아리스토
햇
동국
부가
실망
錄
엿
수로
정세
##_1
만세
이진
해변
박헌영
방송사
##ach
드문
식별
영의정
敬
##밀리
##버러
##아지
광대
그릇
불꽃
온천
분명히
간호
석가
시선
연도
왜성
쳐들
모니터
##ition
체코슬로바키아
달했
수지
허위
구축함
어려워
톨
##극장
##널티
##ire
개종
김재
신중
통보
템
김옥
끼쳤
쇼핑
수법
따른다
역사가
##덕왕
##리브
전위
지류
태생
134
nat
검정
관제
리치
코리아
탐사선
확실히
##ash
알코
mac
엔지니어
等
pl
너비
타당
여운형
그레고리오
對
궁극
시에
왼손
사상자
야구장
정류장
팔레스타인
mb
나올
##경제
##조부
##ork
붙인
##스테르
##하이오
1860
대거
미즈
스폰
위탁
응시
##pt
弘
여당
장거리
言
##일으
##oth
캄보
학업
##베니아
거쳤
도라
면허
시라
암시
외모
##러스트
고개
공직
나눠
무지
문재
발기
드라이버
##레드
##샤바
##칼라
극동
시정
1800
오하이오
##리나
브로
예능
오바
황실
##원숭이
$
밀란
서민
도쿠가
폭격기
數
샹
갱신
결함
사가
초월
패한
하락
프톨레
1880
藤
##람회
성체
풋볼
107
風
##레르
시외
폭넓
nhk
고려대학교
賢
##무소
##지원
##ink
매매
분비
남서부
지상역
자택
마이너
##승지
af
경선
구마
서경
베어스
이성계
##co
##코딩
그루
상해
통틀
##롤라이나
##net
날씨
만남
iso
테일러
1600
##쿠니
브래
신세
본거지
오리콘
까닭
號
##갈색
골프
밀집
아가
유식
혈통
이스트
불러일으
통증
연산군
##타케
상단
가까워
거울
관구
ha
act
族
ref
매카트니
##누엘
##무늬
벌인
임용
총대
해운
can
마하
말씀
##협의회
서재필
젤
김수
냉전
충주
판서
더이상
몫
어뢰
입수
재무
굉장히
위나라
캄보디아
플레이스테이션
굿
##동자
##어들
용이
케네
함선
닭
누나
퍼지
전염
제치
컴백
공용어
##블리
##후군
개소
ver
프랑크푸르트
津
##번스
강희
라트
바빌
수교
스쿨
시골
입체
진급
할리
발트
윤보선
##마이오스
시베리아
##서스
날카
도장
황도
동성애자
다큐멘터리
비리
으려고
젊은이
가환
돌입
동조
서정
중수
키우
터치
사각형
제국주의
뭉
적도
기독교인
colle
괴물
보드
분수
소매
취항
침투
토요일
##니시
배구
부피
신탁
아이슬
옐
##개골
디렉
비문
시범
외관
우즈
이단
풍자
##수리
##히코
대치
뒷면
목재
반지름
포유류
뇌물
함자
3·1
희생자
常
각도
돌연
보인
조세
비밀리
##테면
상급
집결
학회
나열
##크리트
이글스
##oph
우울
우유
허브
114
350
도와주
이를테면
陳
##브르
남해
동정
모친
언니
재현
축구단
콘스탄티
빌려
이윤
잡혀
주역
폭로
머무르
알루미
유로파
kore
在
붐
##게임
김상
이노
입각
윌슨
게이트
##미술
du
맥주
삼촌
의자
주어진다
이준
채워
이용자
##니까
##평군
그치
기고
보증
헬기
만주국
da
nc
개미
바둑
허정
202
사회학
깎
닦
##히트
들이
매수
세균
오비
일파
헬륨
梁
##국사
##레타
데모
mag
##ls
七
##enc
한일
끊임없이
땄
##자와
명분
오를
초연
축성
##프로스
되돌아
정해진
##ement
##도바
##두리
나눈
실재
지옥
초신
혜택
히가시
##티오피아
유죄
1870
이어진다
교정
체력
관하여
안나
ele
tra
게스트
니콜라
反
##네트
상담
아랫
연이
직면
필터
한테
sec
##대회
군함
종속
하트
延
je
반군
ste
해진다
호세
##글리
##파르
남극
실리
가벼운
두개골
##ology
##즈미
로그
이남
주말
특권
med
운동량
보복
분출
사헌부
아이디얼
맑
누이
의결
인플
일생
혼동
min
인테르
##.1
##튜브
공익
상표
아예
하프
##날레
번성
성운
헤어
pre
삼국지
스트리트
아이슬란드
##주쿠
보석
쇼트
comm
##br
극한
병기
요하
에티오피아
동학
마녀
발원
사살
생략
파스
생산량
##종합
탐색
김규식
사슬
싸워
흥선대원군
프톨레마이오스
##바닥
선동
아드
임상
표방
환원
##린스
감리
걸렸
경연
국사
더니
둥글
설화
이끈
축조
김정일
藏
유예
한족
트로이
##운다
넘기
색채
생겨나
如
괴롭
안산
변속기
블루스
##토르
담긴
라파
저주
day
가산
불타
시종
에미
침체
溪
##주곡
ca
석조
신조
진상
초록
##대교
##좌상
우파
증손
천하
퇴장
호족
玄
甲
##미트
공과
선배
싱어
진사
필사
윌리엄스
##루션
##웅전
hy
답변
옹립
전방
채우
해밀
몰아내
알루미늄
기적
물품
손꼽
유방
유체
키르
##러미
##eld
구절
문구
직결
중의원
##맥스
##저지
벌금
본국
多
적혀
미군정
인민군
1885
베이스볼
가열
기증
다름
단절
보헤
암흑
직통
##프레스
카를로
무제
산출
1889
意
##카라
격자
마스
첨단
학계
##ower
서유럽
케네디
페르디난
공손
도리
리얼
선행
조인
원로원
##시로
과실
다발
도어
이겼
타협
후안
닌텐도
스튜어트
禪
기숙
단축
독도
성도
바르샤바
international
想
등재
함정
구조물
면제
심해
예조
하마
루이지
##국어
##브로
##지아
간사
동행
둥지
##래스카
뒷받침
호랑이
동남아시아
保
겁
##먼스
만료
에디
위헌
청색
캐시
타석
ob
루스
미스
아크
제노
알코올
이산화
장례식
삼국사기
用
諸
국유
비하
조르
하차
대변인
##미쓰
##제리
김태
주가
##텔레스
새로이
플라톤
##거진
##und
강대
대패
불명
추종
##타리오
아스널
工
##inc
서신
준수
##게이머
##orn
음료
kia
카자흐
급제하여
제네바
志
##oll
mg
느리
##베트남
모서리
##스피
해져
사이버
印
##ade
기어
연쇄
카탈
신학자
그리스인
井
택시
##iam
모은
##네스코
근로자
star
##yn
達
몰수
바른
線
가축
감마
제재
파병
옴
민사
하단
횡단
멜로디
1868
왓
때려
어둠
116
오른손
##ain
상행
주지
원숭이
패키지
플래시
朱
齋
##독립
거처
대차
도상
박쥐
원장
art
디비전
챌린지
교양
파문
##고래
공약
공조
밝힌
복권
연세대학교
프로게이머
##수지
##자이
순천
입원
형법
미나미
쉐
##다르
##먼드
구형
양호
조별
che
장기간
護
씌
##황제
배려
주조
얀
##건설
##무네
기각
상공
선장
##타니
nt
sw
스톡
영유
인체
차장
천재
태그
국정원
뮤지션
##yl
딘
##올로
ir
tw
자결
취업
동상
동참
빈번
아홉
최진
감독직
들어갈
노론
원본
유년
정립
즐겨
짐작
##ames
pet
실시간
##de
##리즘
##타우
우측
위하
중상
천수
now
함부르크
##지법
##창군
##itt
마인
스님
트레
기술자
보강
소령
안치
인질
파산
아나키
통치자
inst
올라간다
##기아
꼭대기
떠올
모이
무명
애틀
정렬
쳐들어
아리스토텔레스
許
매니저
무너지
충청도
任
##상규
mr
자선
정성
페널티
표기법
##지스
조부
호응
네이버
스트레스
궁중
냄새
다툼
숙부
중복
다이아몬드
공명
동문
악단
우드
극장판
옮겨졌
농부
볼리
피에
희귀
가져오
오피스
카롤
현행
혐오
히타
히어로즈
##닐라
##비트
##que
발칸
약하
열심
청동
바이오
##베이니아
삼성전자
christ
셸
미토
선도
실적
엄밀
유진
퇴역
##로동당
1882
##그래
##반구
##야구
수확
중형
132
유네스코
셨
공립
늘리
사생
팔라
포고
후작
흔하
220
미술관
양성자
1883
dc
강철
기인
기차
등극
취미
楊
##립트
##미사
깨끗
심화
기병대
긴테쓰
반도체
유럽인
일부분
트리플
##덩이
단면
자작
조수
토니
pop
프랑수아
미세
미키
발급
달한다
예선전
슬로바키아
##이도
##컨대
##ert
vs
우왕
판본
top
갈수록
브라이언
문종
그려진
파이널
national
##블로
거뒀
수양
치즈
당연히
아돌프
감자
깃발
민감
상경
열강
nor
공감
막아
임원
mat
유튜브
music
##산맥
서임
신축
온갖
펜실베이니아
##퍼슨
버마
이룬
좌측
##노동당
vol
iv
라그
시국
아부
유니버
密
百
국보
남매
애칭
역명
정인
중소
쫓아
추산
하워드
##리야
거북
극도
라스
메타
이북
##ican
122
휴스턴
碑
##간지
##그로
##asa
기저
나갈
발각
특색
부회장
연예인
김진
중령
뉴저지
당수
손님
대표작
유대교
##이크
경보
군중
봉안
부설
원전
반란군
路
驛
##리온
ww
아닐
하구
희곡
된다면
철도역
프레스
합스부르크
얽
창출
li
과반
끝날
사토
설교
임관
직할
후반기
amer
라트비아
덤
##나오
띤다
상응
차용
국내외
김옥균
나란히
아니하
유닉스
창원시
키보드
cj
개그
랜드
레온
앞장
이케
중원
##우지
##츠크
무슨
신약
아종
조광
창의
남동부
러시아인
佐
##도시
##사지
##선거
인과
지침
rad
기관총
페르난
##ene
기슭
시바
정종
##끄러운
붙여졌
受
간토
살리
미하일
伯
lp
고층
상사
화력
거주지
미스터
##사관학교
느꼈
분별
##노스케
gn
예고
지녔
충남
황족
단행본
미시시피
關
頭
##멘스
cs
간신
수중
이룩
정유
프랭크
원료
##태평양
異
祭
郎
##포구
데카
반역
오차
종파
그랑프리
##퍼니
맹세
분량
차출
131
게릴라
사회당
결혼하여
##치카
살려
소생
소자
적군
지선
몬트리
time
##조약
##ute
dm
여수
진수
품종
경찰관
활발히
그러다가
평안북도
##란토
미노
서문
왕건
통용
외야수
high
##서기
급수
두께
오노
징병
카프
포획
http
先
뷔
##경기
##에몽
##정치
대관
보리
설탕
순양
증진
하행
고고학
에스페
##탄소
만년
이완
ceo
아폴로
시뮬레이션
##시노
dd
gs
강풍
참판
플랜
口
##짓점
레바
아담
이데
조립
키프로스
車
##텍처
결사
방화
수축
홍문관
##ala
사범
승자
자제
테레
##내셔널
##tc
눌
##의사
##ife
kr
사서
용서
원천
##사이드
꼭짓점
콘크리트
##뜨렸
개개
김창
진전
out
유격수
공격하여
보헤미아
##실장
갈래
수녀
요정
정화
퇴임
확고
레이스
##가르
##법인
##태수
닫힌
산림
5·1
광무
노이
아세
요약
창업
출가
친분
##라이어
붉은색
콤팩트
역사학자
플라스틱
儀
리틀
마당
##도서관
1892
浦
싸이
장제
충전
대웅전
센다이
trans
勝
##부르
공황
안테
계열사
넬
쾰
##우주
##집합
감금
극대
발령
cap
mas
베네수
성리학
정부군
센티미터
스케이팅
카를로스
가볍
공표
관세
모의
비자
전속
일으킬
종로구
힌두교
따랐
서류
실권
이관
이소
입주
전복
지켰
초빙
회상
##바이트
아라비아
起
남원
실무
저격
노부나가
##수스
##enn
담보
왕후
을까
잘라
직경
후사
##ream
킨
연호
제위
펠리
대원군
몬트리올
빔
##동군
##화학
독서
무어
트럼
##마르크
생계
지출
##셰비키
우승자
이어진
온타리오
대출
상연
서진
업계
기사단
방사선
외국어
낙하
워드
이득
트로피
필리프
컬럼비아
##ble
관우
##라이드
경찰청
러시아군
톈
신원
유벤
장덕
충렬
다룬다
복소수
coun
現
나비
빈곤
성실
그림자
부리그
프란츠
누적
도네
본작
실정
이경
중산
화강
##공산당
평안남도
au
네오
당주
마에
미소
배수
애덤
의의
센고쿠
어드벤
愛
氣
統
덮여
리만
한스
히스
일리노
사우디아
##노미
하야
##ject
not
기업인
슬라브
진정한
분데스리가
커뮤니케이션
##쓰마
궁궐
기르
말리
학설
보낸다
교대
무술
줄거리
후쿠시마
super
##ha
##레티
##재단
감안
견인
불행
##명위원회
解
ty
살라
도메인
앨리스
##바른
##정관
##ear
고아
시킴
체중
출석
탁월
토마
혈관
후진
##진상규
1866
靈
##자유
##ger
gm
김기
두꺼
부조
##다이라
##조건
내무
당연
선보이
스티브
어려웠
자란다
##거래
##자르
##ave
강해
결별
온다
정문
我
##덕션
경관
여파
카디
화기
드디어
벨라루스
와이번스
##석탑
세키
재선
자세히
모인
케이스
대마
려던
성지
철폐
최강
트래
오나라
사우디아라비아
뻔
##ald
경질
은거
트루
흔한
트라이
부각
수열
저렴
는다면
중앙부
##들였
개항
글리
도미
조병
어긋나
프라하
豊
##나타
고인
날아
무성
본성
거짓말
뛰어났
림
##사리
##여우
##ake
간선
브로드
시달리
##테르부르크
##바인
##lex
gb
김홍
낮추
장원
케임
##들리
##코쿠
##ner
입국
점포
아름답
1893
옥스퍼드
##sd
##va
##주로
미상
여주
이타
주머니
1888
가고
가솔
다투
만성
재질
토양
헌신
sci
말미암
케플러
함경남도
알렉산드리아
도마
양심
이방
해역
mtv
나간다
##ution
##mer
감동
바나
사림
스위치
설치하여
##진상규명위원회
##네르
##로쿠
##산리
##차기
이의
정점
사이타마
##말로
북군
토모
##라이즈
##인물
규명
더글
브뤼
음향
헤비
호의
##민족행위
배속
복용
새겨진
파란색
프란체
이빨
접수
줄여
태극
생긴다
제퍼슨
器
진도
베네수엘라
##xt
닐
순종
역량
오쿠
1848
##개발
##경찰
##클레
rp
구실
권총
카시
##플로
김포
시야
자칭
내려졌
##끼리
##유부
쾰른
unit
##메스
##스틴
경과
사간
서포
이장
모로코
쓰레기
안토니오
##지르
겐지
고쳤
부파
이점
차가
투항
##able
창시자
넷째
1592
##돌이
##지오
부제
신시
총칭
포스
##라이언트
검열
광둥
모금
소음
전구
사쿠라
##포로
구내
루시
시즈
회피
아시카
black
處
로비
치루
패널
rom
증후군
찾아내
##기구
감수
샘플
연못
장단
도미니
피고인
1863
팜
##버리
개헌
거제
나주
시속
del
대단히
조선인민
務
魏
델라
생체
잇따
중서
넘어갔
##앨범
전래
지성
형질
##ox
##uk
##교통
##산화
eng
캔자스
로열
빛나
상트
약혼
왕정
자음
중엽
세워져
이적료
전반기
제조업
키예프
1886
케임브리지
##러브
발병
bre
왈
검출
힘썼
##라이터
##커니즘
red
데스크
레바논
##토프
타구
터보
유벤투스
리오
칼럼
비하여
알제리
烈
非
##ins
##ual
예하
위력
향했
효고
블라디미르
##고등보통학교
商
ho
베니
벽돌
빈도
주부
##고뉴
##나드
##주얼
민정
예종
붙여진
일러스트
出
領
##풀이
염기
경영자
오로지
鳳
돌보
말년
속력
염소
중공
##배우
물가
관광지
라이더
##민족행위진상규명위원회
킥
##vel
구약
상서
reg
옥수수
지배자
인터내셔널
룰
계정
니코
gir
ter
북조선
프로레
○
거란
더비
반성
안경
투르
하류
鄕
##디나
pp
고생
나간
다크
마츠
볼로
장벽
퍼포
##기념물
##프랑크
기타리스트
늙
광도
무궁
수료
수식
이규
이차
전격
퇴직
제우스
##캐롤라이나
gp
감싸
냐는
벌여
유료
내무부
대표자
뾰
반전
비석
섬세
온대
데이비스
가네
원격
총무
크롬
##와라노
aut
클라이언트
##러지
기량
도청
북경
분파
오크
자명
죽인
伊
러서
아날
열도
입양
판례
피겨
##함마드
rna
대명
본문
rev
올림피아
클라우드
##sa
비치
세션
스콧
어쩔
코믹
포터
가솔린
방사능
배우자
비행장
열심히
공양
선봉
헌정
조반니
사본
석회
이병
동맹군
주니치
둘러싸여
끄
쥬
단말
세손
왜구
위그
지도부
카르타
open
慧
갯
##ana
경호
송신
신형
##클랜드
mic
빨간색
니콜라이
##망디
##세포
##연대
##홀름
경작
반기
질소
부드러운
果
益
竹
낚
##조합
단층
몰리
구스타
나타냈
엔트리
##바다
##부리
빌라
1887
관계없이
遠
bm
권장
복종
준주
이조판서
##ti
秦
샀
##럴드
##어넣
주오
gdp
급속히
바그너
스폰서
시켜야
##부상
##카리
##히사
저널
전수
체크
합당
해줄
희극
안티오
제갈량
지닌다
청동기
슬로베니아
성곽
예약
침묵
##워서
cn
다테
대문
더하
미친
##ings
버클리
가면라이더
로이
분당
불린
실존
특집
파손
피츠
##gh
쿤
##우회
강령
격추
비준
뛰어들
wind
마쓰다이라
김현
단군
듀얼
운임
장자
꼽힌다
바이트
대구광역시
낫
##라기
##hel
##oup
걸린
예시
종군
퇴적
헬리
val
살아가
예컨대
容
##마리
가계
들려
철종
박영효
생존자
##다스
퀘벡
표적
현급
##스카르
##연합회
모티브
브레이
프란치
―
##ull
번창
어찌
오사
취했
하반
ost
갈리아
올바른
•
運
##플라
독창
청소
팔리
하치
나이지
jo
가역
광선
성별
시흥
우르
처지
탄두
##레이트
갤럭시
카스티
tour
力
##삭스
연한
관절
성폭
징수
토끼
평민
##클리드
夏
돌출
통역
평지
잡아먹
1864
일으킨다
나이지리아
꿀
tc
우물
찬양
태백
포럼
오바마
##일체유부
무함마드
##da
加
調
##란스
##보리
##산동
##틀리
룩셈
바꿀
벽화
유정
정경
페어
##테이너
열린다
live
그레이트
대전광역시
이탈리아어
##안타
능선
다윈
요충
입헌
증인
탄약
α
##주자
다하
맞붙
키스
패러디
亭
千
##공파
##네시
##워스
고쿠
남작
병조
시어
약점
요격
워크
표창
##테이션
베네딕토
아날로그
설일체유부
因
놈
##래스
고온
무라
베토
상기
이서
카우
해부
der
1876
##메다
ka
김경
모색
보트
전산
천거
평일
사무총장
얕
##거나
급성
으리
토기
법무부
보이스
하노버
rock
프랭클린
園
錫
##호기
복식
비추
450
arm
놀라운
일자리
##타민
온난
입상
체르
추론
페니
기관지
사쓰마
천문대
협주곡
싣
각성
모셔
재해
즐길
학기
에디션
曲
麗
##글로
관청
국영
기분
다를
도피
일당
발전기
사카이
후지와라노
##언스
가혹
거성
귀신
김유
맥도
비전
장안
다케다
가고시마
##ty
##치기
고의
뾰족
사설
스캔
야전
종착
소나무
지붕돌
퍼포먼스
##그레
##아나
##저기
##천사
각색
그대
벤치
휴가
너무나
마르세
프랑스인
룩셈부르크
晉
##어진
랭크
모욕
병자
평형
해독
형편
air
드러냈
파이프
어드벤처
鐵
##코토
sv
넥센
느린
강화도
동유럽
##iki
가늘
전전
태평
발렌시아
遺
##보안
##어족
메뉴
중퇴
문재인
베토벤
시간대
기념하여
떨어진다
부르고뉴
##메트
가려
몸통
임정
항우
황소
ent
畵
앗
##비야
##콥터
국교
그래미
기숙사
이용객
평의회
에스페란토
居
##가이
##가쿠
##러드
ko
겹쳐
끼치
동요
폭파
화약
디트로
스즈키
조선로동당
妃
##두르
나노
나아
데스
아바
노르망디
헥
##문제
##방울
##out
라서
상정
습지
천지
1861
##부로
남미
대법
부천
약해
제왕
종말
춘천
그래도
스포르
적외선
gener
盧
##용차
##ons
동탁
시노
합치
화엄
게시판
복합체
아미타
1865
good
디트로이트
벵
농경
든다
목판
준장
off
아케이드
랴
곡물
막시
불량
서초
진한
타이거스
##니지
##슈타
##음악
메카
종자
##테리아
못하여
프로덕션
틸
##하임
##화문
도교
##form
div
und
만화가
2020
프로그래머
촛
##ony
꼽히
대좌
델타
롤링
복선
우회
폭포
##퍼런스
마닐라
애틀랜
언어학
恩
믹
##아파
경희
내걸
카카
특기
해치
후배
##페스트
##bi
雄
##뉴스
##산면
##팡이
##헤드
검거
일진
걸쳐서
왕세자
섰
##매매
##파리
##히메
상금
시그
절벽
아라곤
##전문학교
##ont
단결
도사
염려
유선
진해
커지
1891
##티즌
미라
사방
었었
우지
이건
중생
참사
특전
군사력
때로는
설립자
昭
秋
##리조
##말라
##미치
발동
원더
이겨
이양
조계
조형
토크
할인
##바야시
cal
크라이
등장인물
방문하여
提
결핵
교량
버그
승지
연정
온건
잠실
차츰
고려하여
익스프레스
##바리
지극
##리학자
관성
규탄
남하
발의
의약
피로
##해살이
가져다
##에스
##der
귀속
이회
코끼리
클라이
##데시
##푸르
가오
강간
이다
익숙
다니엘
세월호
}
榮
草
##불교
단속
열성
복음서
여유
연희
위생
조연
콩고
하우
장학금
火
경시
장대
주선
케빈
광저우
제작사
우에스기
團
강렬
그랜
대성
맡기
의과
led
달라지
올라갔
丁
紀
맘
동네
쌍성
포착
한큐
향교
흡사
##스트리
도르트
비해서
1850
##트족
##let
가옥
공예
기성
남군
부름
수염
240
##ike
로맨
복위
양보
평평
헬레
dav
동시대
라오스
1869
橋
##리사
루타
모호
법조
영동
증폭
##솔리니
간신히
사업가
줬
스리
욕망
작은
정관
##캠퍼스
접어들
상관없이
뱅
가했
불변
안무
았었
탈취
한문
휩쓸
생겨난
쓰여진
한국군
1867
마르세유
괄
##모르
극우
이은
이황
테르
겉보기
라이언
플라이
1881
아키텍처
戶
당할
막판
반공
일각
전세
절단
절정
주창
학력
현감
##루시아
똑같이
무궁화
중앙아시아
致
##구르
##영화
소셜
수위
에밀
유령
재편
중등
타락
유권자
크리스티안
##개미
간첩
강행
꾀하
단정
분단
함흥
##가르트
##리오스
don
아나운
아이치
자민당
員
##삼진
리우
빙하
슈팅
토트
##느러미
從
흠
##연방
##chn
대제
배분
어리
대대로
미주리
사단장
소수자
전시회
熙
##헤이
몽고
민요
세련
오락
용암
티켓
동대문
부작용
어울리
1873
##밴드
##신보
##uck
인하
점거
타수
ber
동로마
##way
간략
메릴
상의
아군
절감
경쟁력
柱
##관광
##sch
lo
누렸
정작
찬사
볼셰비키
黨
##달마
##유사
##캐슬
mi
감상
거세
넘치
대본
문무
선명
세습
유목
처하
펑크
inc
가져온
대항하여
카스티야
##화물
니혼
방대
소울
수락
스킬
아치
흉노
##리아스
##층석탑
근거지
미생물
1872
북아프리카
##사랑
##식물
np
방치
진로
상트페
파시즘
尉
惠
고산
공존
낙양
앞선
주입
타도
int
대리인
##덴부르크
##cd
能
쟈
nm
ur
고이
그저
재활
정제
제로
제인
치하
명확히
##인터
김병
더빙
본체
슈트
위촉
정몽
프롤
##더슨
##정원
ta
달걀
자크
해상도
4000
##의학
메일
봉인
시립
핑크
포스터
천연기념물
場
得
樞
엮
##콜라
##해튼
가맹
근사
보행
위로
태수
예수회
마르크스주의
##질러
부합
스칸
악보
참배
705
교육부
금요일
알파벳
life
{
##다운
cy
dp
계엄
관례
남단
보여준
발생하여
湖
##기스
압록
창문
지상파
해밀턴
활주로
##아메리카
무솔리니
사회주의자
알렉산드르
프로레슬링
##-4
崇
結
##전선
##카와
sr
도스
모나
외치
총통
펌프
핸드
황색
싫어하
코스타
##국제공항
어시스트
이베리아
##lo
도래
상가
양육
원종
자르
가리켜
동맹국
선구자
soul
##목적
경위
기와
매킨
유의
이범
평택
##바이잔
best
엇
찔
##eth
모범
부왕
원통
이송
축일
칼뱅
엘리트
姓
계시
자서
채취
체조
피할
개최국
굶
##링턴
xp
달랐
로저
백과
베른
스미
이븐
##레스트
게이오
사이토
스칼라
충렬왕
##크라테스
아나운서
아름다움
##글라
가락
갑옷
마술
자진
집전
허목
##로니아
국제선
스테파
탈삼진
옌
##서린
##입자
반포
연말
염증
무조건
william
상트페테르부르크
데미
종신
특사
형벌
시켜서
아이폰
아제르
1830
할리우드
카자흐스탄
##노르
##니발
203
달아났
대성전
우즈베
친위대
1878
##비나
##친왕
##rop
루카
선천
요절
의용
정형
최상
카나
포털
협의회
沙
##지로
##흐트
결선
대합
밀어
반정
서위
숨기
실각
출처
마라톤
졸업생
1862
##ication
##네마
##비오
##히데
기뻐
내성
발라
사치
영등
잔인
정동
차르
피핀
mer
철저히
해안선
도르트문트
##로라
감찰
남구
봉해
스태
두려움
부드럽
##ark
맞대
받들
샌디
소극
탄도
■
##호란
위법
잠깐
종양
##ster
##스컵
##퀘어
##트륨
둔다
수분
쓰촨
절망
내세우
비주얼
안테나
위키백
geor
귀국하여
μ
깜
##보국
김원
여권
자란
파기
편견
가라앉
your
가나가와
싼
##슬레
국한
급여
사모
조슈
요충지
次
슛
탤
##기니
##히라
kb
쌍대
피우
교도소
평안도
헤이안
##스크리트
프란치스코
姜
##ane
모함
소용
치른
mor
마오쩌
스톡홀름
吏
##아스
게끔
계주
기한
리모
올드
용수
초원
파벌
루돌프
발라드
이뤄졌
헤라클레스
college
##승부
##진군
##한국
나타낸
줄무늬
지켜보
후속작
##과학기술
植
##니파
##림픽
굴절
레즈
실버
운수
파도
히사
독립군
로스쿨
메디치
서대문
해리슨
1200
브레이크
프란체스코
表
##니오
##선수
##우며
고집
배척
사수
사슴
삼중
신곡
정국
파면
결과물
백화점
알프스
통신사
유클리드
아제르바이잔
가중
경의
국외
묻혔
설문
소말
sam
니가타
알아보
으려는
파견하여
산스크리트
仲
圓
##업원
높여
맥락
발리
배운
범행
안성
양력
칙령
org
체육관
클린턴
品
##워즈
##ola
##ubl
갈아
내분
제너
파우
환관
##슬라프
연기자
영원히
최종전
korea
북아일랜드
報
콰
튼
##보스
관문
기질
다마
옮긴
신문사
염색체
호르몬
느낄
불신
생선
아빠
정월
조례
nba
한민족
히로시
헬리콥터
##테이
교부
전이
채소
api
내린다
맨해튼
사라진
html
마오쩌둥
##원장
강변
나르
내면
사바
송진
원상
유생
전무
정했
콜라
sim
스카우트
管
공고
교의
상고
성령
bro
tre
네티즌
부상자
매끄러운
##지부
사안
심야
위함
윤휴
조회
##부원군
레스토
컴퓨팅
conc
á
##쿠버
##ric
가가
과시
씨앗
정주
투하
해태
##inal
여배우
주차장
캐서린
헛
나인
대각
장시
##로이드
고려사
다저스
싱어송
크리스토퍼
房
蘇
##전트
ts
대영
자판
청춘
##리아노
wal
사상가
전년도
파라과이
갚
##가스
##비뉴
##치히
구이
군벌
다듬
등등
보낼
브란
신동
외래
평판
회귀
san
彦
볼트
청정
코시
덧붙였
카리브
##by
섀
##꿈치
##라니
옥타
장래
재차
제창
주임
카트
국제법
뉴캐슬
메커니즘
앰
##코르
##ino
ml
리옹
순례
안개
총기
커플
##메네스
보수당
察
##관리
##번에
##ena
##ler
결제
군데
농성
생모
수인
흩어져
카르타고
##구스
##시장
##쿠르
경복
항로
호기
##ital
승용차
안드레아
##ors
##urn
도박
리본
철강
휘말
떠난다
삿포로
판소리
스페이스
試
##테크
관행
러셀
전교
##웨이트
컴퍼니
투자자
알래스카
€
##수산
간혹
레일
로키
여도
요법
이항
자가
접한
추리
하비
로마인
해왕성
##ision
야쿠르트
##네티
구두
애정
애초
외형
잠정
친족
퇴위
파인
떠오르
아무리
영국령
레스토랑
타이베이
프로듀싱
坐
沈
系
##센스
##소타
노면
마차
반주
변광
부를
연동
추첨
출동
선진국
아마존
흐른다
顯
싹
##출력
신입
에치
전락
진료
퍼졌
##ouse
난이도
오리온
입학하여
통합하여
##ze
嘉
##세대
모세
몰두
불참
송출
을사
코호
gra
드레스
무서
발상
황자
발기인
스크린도어
ü
術
##창호
사영
삼림
위조
최진실
機
象
齊
급히
노바
순차
정정
져서
피치
uss
도라에몽
營
##동강
##줄기
##티에
##ott
df
온화
mhz
미시간
수용체
좋아했
컨테이너
室
재래
중개
텐서
플러
##스트로
魚
높였
리라
면모
바흐
빅뱅
수필
습득
완결
천천
파일럿
獻
##문회
##하나
남방
맞춘
우상
집착
칭송
파랑
압록강
卿
牧
##레트
대접
수심
숙주
오아
요지
유혹
초안
촛불
화상
pat
교통국
윗부분
유학자
«
泉
##디언
##성사
##타입
kw
가드
감성
고토
공영
도둑
보라
블로
실증
재일
전담
are
舍
몹
##ara
단국
두각
미륵
위계
포탄
가브리
요제프
이스탄
조선인민군
렉
강당
압둘
유태
이륙
종식
이스탄불
class
싱어송라이터
##ee
覺
찢
대니
매직
바꿨
벨트
조롱
해저
##브리어
von
연장전
미쓰비시
발표하여
볼리비아
자락
키워
달라진다
콜로라도
떡
##자드
##자체
##any
선대
죽임
코난
1875
薩
##직원
##칼리
jt
로얄
신의
아유
유우
제명
파직
표정
하고
여의도
장제스
좋아한다
오스트리아군
極
波
資
객차
격차
균등
리터
발착
이현
지미
stud
광주광역시
썬
##레우
##보호
##에쓰
격려
구한
무과
산요
속편
이태
일일
자립
찰리
헌장
헬싱
##리카락
김성수
아닌가
알렉산드로스
咸
강동
놓이
유능
히라
로마자
아이오
주나라
##세키
##어지
급증
문단
압하
이모
일리
형조
##세우스
덩어리
비타민
##스테르담
from
페이스북
ö
恭
##즈마
건륭
대교
무단
에콰
abc
알프레
널
딕
##루크
##mun
개원
기세
나루
자루
출자
톱니
하리
움직일
머리카락
group
鍾
##둘기
견고
경매
경종
고든
동진
메소
불사
뽑혔
사주
습관
제니
제물
mem
민병대
연대기
1840
승부차기
##데라
ig
너머
저조
채색
통영
##타니아
spec
돌아다니
자유민주당
##du
##곡동
bu
사탕
시제
접해
참수
대장군
마법사
알아내
친일반
##철도공사
phil
에콰도르
##mp
俊
初
쪼
##애틀
##짜기
나름
명하
별세
복역
부다
연회
유희
혼성
##work
공화정
도자기
솔루션
미나모토
陸
首
쉴
남산
알맞
증오
cre
아미노
인해서
미네소타
##나기
##프랑
국철
매진
시몬
여타
아리아
와일드
패밀리
第
##메일
견디
굴복
음절
피어
1874
이산화탄소
챙
나빠
발목
송도
스킴
네이션
마우스
좌의정
宇
虎
샐
##트르
##프턴
금전
당황
비싼
서리
은신
청룡
큐브
결정전
마르코
밝혀진
角
##리얼
##진흥
##청장
감추
루크
묘역
종점
특화
로렌스
마카오
여진족
조지프
대한항공
일렉트로
공천
다행
뒤이
신발
유족
카피
해냈
녹색당
빠져나
사민당
화강암
##도라
##렉션
램프
왕궁
호모
아나톨
mark
record
##ql
手
##그램
근래
방콕
백두
vir
들어섰
시애틀
외무부
용의자
아카데미상
##비츠
cg
긴밀
보정
청자
##스투스
관련자
매거진
밀가루
둘러싸인
야마구치
入
##안전
양조
치우
풍습
만난다
행해졌
##마귀
##미즈
##자루
내란
모스
북구
성대
클러
raw
끝난다
문자열
여학생
토스카
##아프리카
nasa
始
##변이
##트루
귀화
부교
소동
소외
주먹
코코
하남
bus
가르쳐
그만큼
다스렸
뛰어넘
바이킹
초나라
함경도
후지와라
變
턴
단조
도선
슬하
신기
아쿠
연립
fla
대법관
편집자
프로모
헌법재판소
베풀
속주
후예
우의정
전해졌
날카로운
클레멘스
히브리어
尊
贊
##등식
##rag
겹치
복직
산둥
신정
우두
재앙
화자
노벨상
오일러
요르단
천천히
패하여
batt
울산광역시
母
群
객원
과격
어류
전학
계승자
이조참
저널리
종업원
친일반민족행위진상규명위원회
캉
관음
맡겼
명부
바쳤
세간
유라
응급
정령
칸국
210
볼로냐
쓰시마
컨트리
함경북도
目
##펠트
전과
제프
피카
로타르
출입문
프레데
##나마
##와서
양대
장녀
최선
추존
흥분
##라미드
멤버들
무사히
1877
##어사
계량
구금
김명
나뭇
덮개
도출
오지
취한
콘솔
향토
sur
조선소
토트넘
仙
陰
맥아
면담
모반
비엔
원유
저그
전권
주심
행파
헌납
##노카미
##스피어
cat
tbs
공방전
나타날
농산물
수나라
아이콘
자서전
히트곡
프린스턴
award
사지
새긴
슬픔
원군
이야
die
rep
마르틴
애리조
프랑코
free
미야자키
##우어
##함수
kh
논서
몰랐
안방
열려
토요
개정안
다이어
서포터
쇠고기
치러진
##ows
si
경무
곱셈
기장
리뷰
신상
야외
장병
총격
커서
도망치
비스타
텔레콤
설립하여
##레라
김인
놓인
빨강
영산
오미
우월
위안부
컴파일러
半
il
김준
보름
아메
의류
치환
표절
하코
합금
홈즈
서사시
##사화
##와프
고성
금고
김윤
농지
만날
병과
성악
앞세
요양
충당
포식
피오
usb
win
달아나
월요일
페르미
인테르나
꿰
##공동
##fer
막스
블레
、
##네임
##노동
##전도
노후
연행
오일
중용
첩보
촉매
평탄
僧
과연
미들
북벌
사학
추서
칼라
행방
회유
##za
늪
가토
관용
눈치
배기
서면
실록
여포
인칭
패권
##블랜드
대나무
에이즈
인디애나
##타고
국호
단선
작년
##ator
드러머
로마군
바람직
실험실
집정관
파나마
##lation
隨
##텐셜
알폰
예명
이례
타선
터지
ang
프레드
song
현대자동차
##라르
강서
거인
백업
서스
아뢰
지쿠
패해
하급
호프
app
big
www
가이드
유치원
유학생
律
惡
##걸이
na
간판
대금
명소
세분
손녀
가해자
少
類
쿄
거칠
규율
묻혀
송환
신봉
직계
터빈
포탑
허블
##절도사
gnu
mit
게임기
프랑스령
릭
##니티
es
꺼내
덴쇼
뒤늦
신지
하르
##차이나
수수께
타임스
完
緣
갈리
미수
배반
서태
전멸
천국
체스
하시
개화파
레오폴
1879
애틀랜타
출연하여
乙
고딕
네팔
래퍼
문고
슈투
아소
은혜
타케
imf
부르주
소피아
##른베르크
삼국유사
오사카부
꽂
##니츠
##장사
##활약
##휴일
거꾸
비늘
승하
요괴
이천
형주
호쿠
msl
분기점
전동기
암스테르담
클리블랜드
觸
香
##로폰
관상
서거
팔렸
시멘트
정치학
news
프로토스
##세기
##자원
##학파
gt
강전
도제
유포
직행
치유
대사헌
맹활약
윤치영
주제가
골격
국력
매도
수복
야드
점검
죄수
차수
항전
기념비
##전드
##코타
객실
기운
도읍
변이
성화
왕성
자궁
회관
##펜하겐
320
하이드
back
##wa
##몬트
##일즈
##피오
경지
구획
네모
다치
뒤따
루프
유서
참정
학대
한창
형용
end
교육자
낙동강
이사벨
토리노
폼페이
코펜하겐
##번뇌
그릴
대청
상파
조봉
##티우스
인프라
자외선
풀려났
데카르트
境
##세다
##초프
##홍색
bi
고마
라기
오대
위패
이심
트렌
후원자
스트라이커
ā
可
컷
##세서
##포타
lu
교실
마땅
변혁
사역
열렬
조심
조준
토록
프론
708
탤런트
池
舞
##화당
##ini
광명
극락
소중
오만
일지
증세
함량
혼혈
휘발
dec
박람회
요시다
경제학자
스테이션
壇
岩
瑞
靖
레버
배달
원한
출세
커졌
코카
파편
bas
ios
jap
다이쇼
모터스
펠리페
##cs
富
支
死
##셀러
##bur
고추
구슬
금호
대류
리프
사각
왜군
우연
워너
원심
웨인
인산
종묘
학장
흡연
kar
불가피
튀니지
닷
##나시
##모노
##스포
##악산
맞춤
선율
타르
하지
항만
##네이루
프레이
##디나비아
船
##면체
##플린
공시
도약
도하
휩싸
bel
수수께끼
##드슨
##라크
구니
선양
지르
330
다나카
모리스
상대식
##꼬리
##eng
광자
녹화
세라
신해
유타
일설
청계
걸린다
클레이
plan
더글러스
돌연변이
##여자대학교
總
##넌트
##울루
##led
rh
가두
세단
짐승
거꾸로
범죄자
##익스피어
great
##고르
##제이
##히드
대의
잡히
정예
라면서
마누엘
city
heart
associ
산스크리트어
嚴
局
菩
웬
##열대
거룩
시부
유길
무승부
##네오
##메라
경량
변질
스텔
애인
의례
지탱
퍼즐
뢰
##니에
럭비
발산
삭감
임계
조공
추력
충북
취해
##오르크
변한다
해석학
코린
##ular
강대국
이광수
arch
결합하여
야마가타
##gy
##처스
목욕
분사
식용
정선
측량
해시
호리
호투
230
mil
who
공연장
바이어
##ative
레지스터
비교하여
비스마르크
유로파리그
##ya
##카쓰
교제
김광
던졌
외척
죽여
헌병
헌종
호스트
스칸디나비아
씻
당당
듀오
류큐
몹시
번갈
야심
지경
쿼크
케이프
해안가
신한은행
피라미드
共
溫
거사
닌자
별장
섞여
현황
hol
게오르
내보내
웨스턴
학생회
##ex
핼
##거스
##뜨려
##왕조
##타다
##푸아
농림
봉수
심문
즐거
포화
필연
##ange
성매매
墓
각료
낚시
대담
물결
바스
우아
원활
유다
재난
정명
조교
톈진
해지
릴레이
카타르
출발하여
뱃
퐁
##정사
##포시
pi
공소
샌드
재벌
강력히
클라크
타이어
다이노스
night
倉
普
##체고
wr
동향
직사
카터
헤로
##가하라
750
fir
다마스
서해안
1859
남베트남
홉
섬기
소론
완비
투신
강남구
도망쳤
백악기
안창호
가브리엘
나카무라
elect
nowiki
결핍
아쉬
왕관
잔존
접전
최영
해주
유길준
추종자
##아일랜드
뉘른베르크
##소수
##iew
루비
무고
삽화
원술
정거
좀더
준동
프렌
cbs
ear
내세워
내야수
대상자
대표단
사간원
송진우
크레이
플루토
6000
king
떠날
옥사
ram
야구부
메릴랜드
병조판서
住
경인
남용
박종
사비
##브리아
ger
사절단
시코쿠
차세대
데스크톱
衣
군자
백신
소대
왓슨
족보
채굴
취향
흘리
fri
언론사
스크립트
조직하여
峰
衆
댓
##피카
간결
민심
안기
유망
추축
침대
필명
##플렉스
wat
몬테네
아레나
조봉암
플러스
##-7
##bn
완수
혼다
문학상
苦
뭐
##랑카
##위치
가쿠
동포
미합
반죽
베리
여건
접합
현직
dos
공통점
벗어난
##드레
##소보
니켈
모신
몸체
악곡
##위원장
sal
부총리
홈구장
techn
##천리
##퉁이
교관
기쁨
닉슨
대종
리베
모하
열쇠
지인
찌르
중공군
dream
##링겐
pm
거미
날려
문정
진언
파충
포토
필두
##게이트
머물러
팔꿈치
丹
##곡리
##신도
나미
무언
위도
처해
카지
파란
##비우스
대합실
새마을
지나친
發
翼
##구미
##중추
##지기
결장
글꼴
모피
보위
볼티
열세
완만
잔디
히메
두꺼운
보너스
시마즈
컴파일
american
##dr
괘
규약
내포
모차
무척
배트
사내
용품
편향
화랑
##tain
280
hum
방글라
와세다
장애물
동원하여
컨트롤러
邊
결전
관위
색소
서주
외과
토목
패망
슈트라
자연수
관현악단
국가보안
台
멍
##루가
##비안
##비크
##후보
몸돌
신진
rem
라파엘
봉우리
##-5
겔
국수
도키
마가
자취
주고
태우
ext
교구장
진행자
莊
##클럽
##토쿠
##티니
도이
라쿠
머무
브랜
작물
##일전쟁
경복궁
롬바르
채무자
##프라이즈
브라더스
쾨
##대성
고노
납부
번개
순식
약사
해병
bab
노르만
마그네
손잡이
알렉스
퍼텐셜
프로야구
david
##ci
구문
막강
반하
아편
어사
주포
직속
태권
투여
패치
##운동장
##iver
fil
내세웠
코믹스
##더링
##루즈
##화산
##yer
김형
모조
스텝
이브
##트트릭
되풀이
서태지
클라우
##포타미아
1858
게오르크
시즈오카
룸
##구나
공법
기니
선체
연달
징집
할양
god
브뤼셀
트레이닝
##ka
取
##무역
##빌리
공단
공안
마우
발포
상식
전봉
조이
직관
##니버스
경계선
경쟁자
스탠드
정해져
펼쳐져
페널티킥
instit
貴
##닌다
걸작
고제
사변
안중
자처
천명
출혈
케냐
바로크
페트로
純
##시카
oh
군산
대타
바디
빈민
신종
요즘
울릉
황폐
##루이스
650
doc
sns
거래소
1812
가로지르
잃어버린
방글라데시
조선공산당
페르디난트
連
##강전
##들러
계보
깃털
병렬
수하
충무
토미
필하
260
max
노동력
올려놓
차가운
8000
계속하여
대통령직
민주노동당
條
越
##내리
##비언
##투리
##훈장
관하
극찬
깨지
무수
변해
부에
부추
사쿠
새겼
서예
암수
요직
증강
쿠르
##미트리
개구리
빅토르
진출하여
博
種
if
글루
예일
취직
케인
##대서양
행위자
over
명성황후
바빌로니아
셰익스피어
robert
區
##버터
끝냈
도발
독살
두어
싸울
이윽
천마
튼튼
하라
##른스트
맥아더
물려주
재판부
차이나
보수주의
奇
職
마키
진흙
헌액
hot
더블린
비둘기
소유권
순식간
오릭스
해결책
paul
that
가와사키
볼티모어
赤
##끄러
반론
서품
승상
야망
용감
유무
조소
##로마치
550
갈라져
과반수
다녀왔
달린다
독수리
북유럽
이윽고
플랑크
히타치
爲
男
舊
##인단
##제사
##ula
강세
근방
길러
랴오
부두
양수
완봉
전단
차선
참패
평했
##올로기
밴쿠버
스트라
카탈루
cont
사다하루
project
δ
執
##장로
도성
버터
빨라
웃음
직교
쿼터
pos
라인업
브레멘
신민당
재판관
포르투갈어
督
나마
로우
반항
비야
리믹스
자본가
전염병
무로마치
메소포타미아
座
町
격전
국공
동산
매립
밀러
시비
아산
에겐
워커
중합
카바
##cess
dis
수도회
프리스
갈릴레오
오클랜드
久
蓮
##사령
계투
오디
자오
잠입
조영
ktx
절도사
제작진
두드러지
활용하여
##메니
vi
기밀
단자
성품
솜씨
스노
태아
테란
포츠
레전드
club
헤르체고
庵
##약스
##티시
##ety
가세
고로
농축
능동
사귀
에반
유화
차명
천상
공휴일
예언자
올라오
율리우스
프랜시스
피아니스트
呂
轉
##uss
건널
군용
내재
넘겼
드라
반입
방공
배워
백악
살짝
애완
익명
전리
조개
조석
지면
치사
폐차
후견
ioc
밝혀져
신주쿠
조광조
폐기물
範
김연
묘비
무찌
부양
우치
우표
입히
정박
편안
다시금
빼앗기
종사자
power
괌
##원사
db
변모
수량
전범
주세
하층
270
cam
sat
리프트
사대부
아약스
##민주연합
낭만주의
매킨토시
##cr
淑
낡
##하우
건전
릴리
부관
사구
아다
재팬
톰슨
흑백
경부선
기울였
솔로몬
앤드루
우울증
사회민주당
팰
기묘
부풀
사드
표출
난카이
연주회
유적지
이뤄진
테네시
해트트릭
james
邑
넬슨
매리
베어
성행
시발
어우
제단
친한
카테
law
용인시
sing
대비하여
아틀레티
한국철도공사
##구니
간직
공판
늘려
보나
승낙
워터
줄곧
증발
통지
감리교
골짜기
바뀐다
법정동
상속인
제조사
1700
반대하여
부다페스트
몰입
부실
북단
시문
시원
왕래
위스
질투
풀이
중공업
상파울루
農
##게스
##아트
게리
군도
그럴
벌레
석권
소박
페로
sun
곧이어
미트라
올리브
하반기
##트가르트
1839
center
##ds
淨
##철수
##str
고찰
로페
무패
시찰
유머
착취
친밀
클랜
탐정
평상
강희제
숨겨진
아키타
##레타리아
long
지느러미
힐베르트
미나모토노
閣
##데기
##정변
##통합
##투르
곡면
군청
로트
반동
월남
주저
쿠퍼
하후
헤겔
##ille
akb
lou
금강산
논리학
다가오
담당자
아카이
일진회
자신감
채권자
헬싱키
惱
輔
##르카
##호프
베컴
인위
자수
한명
##tern
cia
soc
메이커
세비야
정거장
프린스
헤르만
레인저스
復
銀
##가드
##놀드
##디드
##메랄
##통일
길드
노랑
바지
복속
비옥
웹툰
테라
adv
mid
결의안
브리지
연대장
제노바
형이상
serv
廟
禁
足
궐
##암동
mk
맡겨
미셸
상한
서약
선우
종영
후유
##테스트
비행사
슬로건
아열대
##치오날레
7000
##go
淵
##시민
##우옌
갑신
매트
세가
수산
안녕
차림
체내
휴양
##마스터
역사학
故
립
##국적
##스레
숙련
재주
한림
글러브
돌아갈
thom
인플레이션
##mus
괴로
군세
보직
상어
세바
스이
신익
연해
##berg
마다가
승리하여
아틀레티코
인테르나치오날레
##td
##비어
과잉
대여
목회
씨족
원제
자생
침범
팔작
펼친
fun
아이티
코소보
##로트
가명
미칠
세네
플랑
현무
##몰로지
목적지
아시리아
私
##레네
##시게
##여왕
##코어
##플리
ft
김지
나우
다량
로버
만장
보류
볼프
산물
자의
작중
편제
##illa
마쓰다
유니콘
하이퍼
콘스탄티누스
##fs
近
날리
단발
모모
무형
미미
여사
wii
주고받
증조부
튀어나
lang
彌
燕
父
郭
썩
##하키
도형
밸브
버드
불경
사교
아끼
올릴
위시
저질
모멘트
스퀘어
일부러
##프로세서
도입하여
아미노산
이데올로기
欲
##그러
##보장
##쿠사
김제
마니
온실
자코
절친
청량
투기
레슬링
stat
아나키스트
層
##테른
문물
본적
생길
수급
착각
천구
##캐스트
hen
아브라
##문제연구소
##마타
##문과
##peg
vo
단사
절충
테리
평창
확충
tim
##스트리트
소말리아
소아시아
오토바이
旨
##흥군
배아
불태
적발
절약
지령
함양
고조선
사라져
시달렸
이주민
정치국
##ax
期
##사범
##파스
##ody
신민
외환
제천
중신
380
도널드
치러졌
효고현
병자호란
우두머리
battle
淳
##세르
##웍스
걸음
내구
만점
미지
산호
신당
외면
인승
줄일
직물
단거리
동해안
정해졌
초록색
케이크
합류하여
아나톨리아
交
가독
고난
들리
아님
자행
통솔
환율
그러다
인지도
부르주아
progr
##니카
##시안
##오드
이봉
장전
##파르트
sum
보좌관
생각하여
喜
##천동
ul
경건
단서
소작
심정
재기
청취
함장
현미
판매고
##si
儒
뮐
므
##리드
간이
강했
관내
꾸며
리튬
에노
장택
평의원
1789
euro
備
勳
訓
##백제
##펠러
고모
공대
구타
박지
배울
이언
직렬
카네
표하
피사
##로그램
sol
갤러리
마운트
카이로
아우구스투스
友
맴
ve
공병
괄호
나쁘
볼넷
상선
승률
시구
익히
증산
타우
향기
##스타인
##ough
tom
승정원
아키텐
알폰소
찾아오
mich
독립협회
모차르트
이리하여
持
끔
yg
세무
이코
좌상
창녕
##ival
나트륨
미카엘
line
情
##두스
##시브
rt
관군
마요
미식
방호
상법
샤이
소진
여래
울리
총액
패킷
폭주
황산
횡령
선제골
스캔들
한자어
beat
교향악단
그라운드
프로모션
巖
콕
##하치
교화
놓치
배양
불쾌
이별
이여
키릴
혼잡
환산
1776
야마모토
슈투트가르트
룬
##지도
고을
변함
산조
영예
자질
단말기
로베르
스토어
아랍인
이완용
편집장
ever
에른스트
##터키
##ani
##ero
만류
바늘
연중
척도
girl
miss
출마하여
플루토늄
β
具
줌
##애미
hp
강성
매스
발판
분과
수표
실명
압수
야수
외할
촉발
취할
inf
mov
1801
마다가스카르
##둘러
##에미
##이에
##테랑
##토키
md
논하
대입
맞물
일선
판명
##니우스
고양시
노르드
진보당
활동가
oper
와카야마
박원
불릴
소시
수시
안겨
##키우스
747
원산지
인코딩
자격증
모노이드
sound
毛
##든가
##방향
##학사
개경
다룰
암모
양위
처치
체질
카즈
let
##ensis
에이전트
##릿수
##app
격하
광업
동차
뱅크
서장
일산
아이즈
특별법
한민당
형이상학
가나가와현
盛
##누마
##버른
##the
간도
냐고
수레
악명
의논
하강
햇빛
##ated
격투기
대의원
전해져
쿠르드
##ye
珍
隆
##다발
##사유
경원
내릴
다닐
마블
받치
상층
여럿
일괄
점진
티저
사천왕
라이프치히
慈
陀
##루트
대목
불려
시성
일면
조장
log
베이비
브루스
응우옌
자메이
제너럴
태어날
플러그
박테리아
엑스박스
슈트라우스
우즈베키스탄
##전대
##티넘
도우
말려
명륜
박성
법규
잔여
조문
지그
철자
합친
화염
##스코트
다면서
미친다
안티고
오른다
지극히
1400
연합하여
킴
##네프
##삼문
##세계
##콘티
공채
마야
박수
부총
아타
이력
자석
트림
닛폰햄
브리튼
이노우
저지른
파라오
마이애미
여성주의
##ization
##쳐서
기조
떨쳤
실상
실은
염두
영수
정역
중견
##기독교
she
대수학
물러난
아놀드
애덤스
취리히
치명적
한국방송
육군사관학교
射
臨
##다보
##당파
##로아
그랬
발광
변성
서한
칼슘
퇴진
무언가
비서관
아스카
등판하여
서비스업
##dy
ä
##룩스
##은사
거머
관목
권역
대국
등산
삼척
아와
악성
열악
월트
치뤄
획기
신익희
드미트리
오카야마
자메이카
프리미엄
contr
##10
경도
노사
돌렸
생원
슬램
여호
이길
출격
출국
침식
칸트
캐논
캐치
##차이즈
way
가져가
며느리
애비뉴
오이타
의약품
이라는
지자체
—
板
##조트
##호텔
기근
비싸
성가
심포
창구
침례
토로
alb
cur
물리쳤
퍼스트
1846
이동하여
##다고
##사업
동적
묶여
안채
추후
허난
피안타
哲
麻
가우
균일
금산
도산
마테
바리
빛깔
숙소
울프
은폐
자성
재물
적법
추장
가우스
기념일
넘어서
電
##빨리
##토바
##lin
##ret
가자
두터
부류
상환
선인
세레
안팎
입술
자정
직류
##캅카스
교황령
다국적
독재자
마스크
베르나
允
産
##니언
##위안
##테일
##티야
##패스
김민
당뇨
배역
베오
예식
일삼
입시
잔해
카사
##니쿠스
가환환
개인전
멜버른
장난감
파이터
肅
##과장
##바드
##발트
##아비
##타노
기이
다쓰
물류
박자
방한
오인
용맹
자막
출품
화소
구단주
상반기
앤더슨
mart
soci
그러면서
바이마르
파시스트
다마스쿠스
스트라이크
##겨레
기마
동군
배당
부주
임하
주유
줄리
지문
집적
폐허
항원
tri
모나코
연방군
열역학
이회창
장로교
호크스
멀티미디어
那
댈
쑨
##봉산
##천면
##케스
기판
메모
백조
베일
산시
소아
조서
죽일
출사
캄페
컨설
경덕왕
정보원
rich
인도차이나
列
교파
교훈
넘버
능숙
은밀
의주
타쿠
후미
다목적
제주시
1857
불러일으켰
##yr
##개혁
##사전
##키타
##olf
가방
변종
본존
응하
이질
푸아
##타나베
##플러스
개척자
참의원
hist
임시정부
쿠웨이트
精
##공단
##마일
##사다
##성서
##ump
앞둔
음주
이룰
dem
장택상
dire
구마모토
戒
혀
##워졌
공석
두뇌
미학
변론
수증
스윙
어항
용액
행보
dom
결승골
기울이
로드리
이즈미
국가보안법
루이지애나
##-6
쿡
##디자
##미자
##여단
##호르
##ese
ba
연평
원점
조만
피드
호적
흑해
거쳐서
동물원
스테인
프리킥
1793
park
협력하여
均
念
##amm
om
낭비
노란
망루
문경
배향
사일
유영
주화
처마
##민스터
amd
공식전
금나라
바닷물
푸에르
후세인
폼페이우스
##_2
##소문
##향교
결렬
동맥
동호
맹렬
무도
변한
스플
쓰일
유계
처방
현판
##노마루
dig
목요일
엄청나
입법부
세인트루이스
깁
엡
##뜨린
##bor
가결
니까
마린
시차
유러
추억
퍼스
sil
손꼽히
순교자
신석기
청문회
등장하여
劇
##선교
##수소
##할구
거병
기해
능가
동거
바비
법전
빌드
시크
영사
정황
출병
활기
선거법
1849
jose
丘
址
蔡
탔
##일치
gi
격침
남조
뉴런
명중
바보
배타
성기
아데
용지
def
나가노
향하여
화장품
##erson
1855
피츠버그
今
隊
강호
과다
기권
동급
수력
자각
절제
지오
pap
감마선
대명사
되돌려
오스틴
집단군
cons
±
布
##시드
가뭄
딱딱
무색
문관
스맥
억울
유스
클럭
그러하
내려와
붙잡혀
서울역
요하네스
입단하여
##ko
맷
##주사
##콘신
##por
aa
갇혀
건안
구명
김치
노보
단과
모건
블리
엇갈
웅진
유골
임종
점화
pan
조병옥
천도교
항아리
1854
this
祠
##타워
##함대
um
고국
매표
서산
실렸
지청
쳐서
관현악
글로브
목표물
스코어
시공간
이메일
프로테
합성어
1856
도착하여
##들인
##참찬
##처럼
##코더
##클로
##할시
과감
김우
동창
따돌
손목
에바
재발
전열
조셉
초콜
부르봉
점성가
최성기
한겨레
1815
위스콘신
franc
藝
閔
##링크
##시랑
##현동
거느
군량
대등
되살
몰타
애드
장판
평하
##레우스
글래스
당하여
동아리
여객철
운동장
유엔군
중거리
펼쳐진
home
##불상
##che
나일
모란
미화
발톱
백지
싸운
탈피
활자
개개인
맥스웰
음악원
허드슨
아테나이
斗
##군사
과세
기공
마켓
새우
세븐
앙골
원동
이누
재화
치과
퇴치
표제
호화
휴일
시할구
흔들리
mult
刑
鶴
뜬
##레프
##파일
##패드
##황색
##yle
강좌
방비
시로
알카
의복
정실
##메이트
ben
나리타
위구르
정도전
찾아와
牛
ll
가령
감기
공상
근간
벤처
붕어
사병
소정
연화
제철
##ency
ann
기념관
시네마
시티즌
1814
##감독
##쓰구
도끼
리즈
봉황
산수
수의
정진
켈리
코일
##over
show
플래티넘
소크라테스
##미네
##itz
ah
민원
병마
시역
실사
##리아누스
두려워하
여러해살이
譜
##ney
결말
경내
국산
규합
넓혀
모체
어선
외손
잉여
한시
204
bra
blue
協
##너드
##요리
##차트
rd
국부
시력
음역
이문
지층
추운
포교
한복
국방군
끌려가
마에다
스테판
타타르
테두리
##바이러스
근거하여
부에노스
이적하여
載
##가야
##대구
##폐합
##ael
강자
골절
궁내
그물
깊숙
눌러
라오
법관
세토
손책
전조
증식
최장
후회
##ward
라그랑
영사관
지질학
합창단
2500
요리토모
유니버설
이주하여
##도비
##피크
gh
부전
앤디
##브리드
##차대전
##eter
고인돌
나치당
로빈슨
산티아
애슬레
##그라운드
gold
아랍에미
지정하여
charles
比
##다오
##데일
바젤
세요
스기
유구
테살
풀백
gps
mot
백악관
천연두
##퍼레이션
갈릴레이
갑신정변
오아시스
제조업체
알렉산데르
프로이센군
general
離
##나들
##는점
##비에
##선사
tu
광배
다지
리가
마셜
비아
사소
실효
십만
으러
이호
쟁이
커브
##스토크
pal
또다른
미야기
토마토
##잉글랜드
眼
謙
##라라
##메드
##부미
##ids
무루
밀레
슈고
음운
코리
클릭
##프랑스
리스본
을수록
state
windows
##노총
격리
끔찍
농가
문집
본편
비토
앵커
열반
중건
캐리
콜론
가치관
수비대
아키라
트럼프
피의자
game
work
스케이트
텅
##내티
##라시
##ode
건네
검은
경합
도적
떠돌
야채
정적
친화
##네티컷
ret
에스컬
탐험가
신시내티
##ations
##oo
괜
##볼트
##암사
##ari
xx
갯수
기통
라디
무네
바트
세제
에레
풀리
황위
##ling
관찰자
다행히
크메르
평균자
1820
澤
##정동
계좌
기피
돌기
율법
이형
짝수
청각
충칭
타일
피셔
하수
하쿠
항생
허물
거주자
관심사
교통부
깨달음
서바이
세미나
결성하여
japan
孔
맬
엣
틴
##헤임
##lad
mt
괴멸
교재
근세
농담
봉화
스몰
퇴출
그랜트
데일리
사무국
지팡이
황도대
복귀하여
노스캐롤라이나
餘
뿜
##와리
##할린
uc
골라
방학
부평
인노
정재
파커
##공학과
lin
국내선
독립국
리조트
사학자
정몽주
포인터
사라진다
##zy
獨
##사단
갖춰
고다
김두
목장
무겁
문체
박상
반향
얼룩
유틸
잡힌
치아
현관
##ball
경주시
무지개
소나타
신입생
아이언
켄터키
##타고라스
개발하여
페르난도
pt
간파
강우
넓히
라울
로크
루즈
마천
서귀
서점
아킬
유상
장신
져야
청했
도망가
동남쪽
스트로
전기장
커리어
펠릭스
형용사
의거하여
master
。
兼
뜰
##등록
##산드
##오나
공경
독주
등단
무르
봉헌
운석
인계
inv
끌어올
보조금
사업부
북대서양
코네티컷
company
煩
魯
##윙즈
기미
던진
아브
여가
유충
하중
향수
##슈타트
갖가지
유전학
일본국
land
그레고리
베스트셀러
−
靜
##마켓
##매김
##즐리
##ude
금색
김승
끼친
샬케
스택
원문
장정
천자
포대
헤엄
홀수
흉내
##청년회
아이젠
##제국대학
산티아고
메트로폴리
코스타리카
滅
감축
꾸몄
모던
붉은
세밀
세울
순항
신병
안재
이바
진위
충고
토리
통감
##공화당
간사이
계약금
성남시
스타트
역사서
직사각형
에스컬레이터
ó
留
裵
##검찰
##블릿
##소시
##.25
결투
곡식
남송
리바
면직
수목
왕릉
의종
##데이터
ray
당선자
아이작
왕당파
입후보
필립스
1791
루스벨트
콧
##공립
##니르
##혈구
교내
귀양
마애
모교
묘호
순찰
안심
왕명
월터
중고
피살
황하
##경찰서
##포인트
스트림
disc
nato
type
사무라이
stand
프롤레타리아
##브러
##일기
불길
서역
윤곽
이목
제르
제지
치밀
급속도
막아내
재빨리
##ection
first
아이스하키
프랜차이즈
하이브리드
united
岳
慕
금동
담임
메츠
믹스
용해
우마
지요
칭했
##국민당
다이빙
반감기
발가락
여객기
구스타프
보루시아
안티오키아
球
賀
팡
##ree
경순
버티
상이
손수
어지
에마
영정
예의
지체
최용
##부아르
##이스케
bad
내려갔
몰도바
올라와
찾아왔
타임즈
펠로폰
석가모니
합격하여
誠
##다임
##데자
##도군
##시트
##tor
거시
광종
구애
려다
망치
무능
부스
숙명
숙박
애도
열릴
유독
조경
해자
흑색
##네소스
##선수권
bet
몰로지
보여줬
서스펜
태권도
파스칼
바그다드
##-8
孟
桂
葉
養
쑤
##덱스
##레토
##ano
공무
교복
긴키
니체
루피
민물
봉하
에뮬
제비
픽셀
한산
##르타뉴
##코비치
hal
그나마
나와서
보유자
추축국
패트릭
위치하여
안드로메다
洛
狀
羽
##기야
##노트
##무관
mu
가창
댓글
만물
박진
원만
음양
폐하
##트로피
레이싱
부의장
이바지
1851
亂
学
邪
뺏
##샤오
##시미
##큰롤
도르
맞배
연사
유세
의욕
재회
제헌
중남
출루
피쳐
256
날아가
저질렀
돌아간다
부위원장
민족문제연구소
祿
素
##뉴얼
##부스
##세트
##이츠
가타
갑오
강타
결여
겸직
당기
방울
버섯
버펄
입혔
처한
커져
패퇴
##백화점
도지사
예비군
카디널
파르마
1792
like
남한산성
브르타뉴
그리스도인
사운드트랙
戦
##데오
그늘
반점
사악
상록
오우
장쑤
켈트
호크
데뷔골
데이브
방어선
용산구
콘라트
후유증
블루윙즈
量
딥
쏜
##레즈
##릿지
##백색
##케인
##ste
격화
고승
너희
놓였
위배
위축
조비
차차
행군
화승
희미
김정은
선보인
우에노
인도양
컨텐츠
베르나르
스테파노
冠
廳
胡
##가나
##락부
##람쥐
##무지
##연의
구부
대덕
돼서
맨유
모태
보어
산술
선상
스쿼
어쨌
유공
이우
핑계
##urch
sub
공성전
사이즈
플랑드르
브란덴부르크
##북면
##자치
##ama
##ien
공해
귀인
다짐
면하
부역
스와
스커
영성
오기
튜링
헌터
마이어
벤피카
자치주
주거지
1623
##hr
##ux
雨
##날드
##카쿠
##ops
고관
도안
미성
사산
시오
양서
적정
착오
205
렌더링
운전자
조나라
주둥이
association
葛
要
釋
銅
멱
첸
##리쿠
##상업
##인사
##ita
갑판
과자
관개
군비
굳이
복고
불능
사탄
시안
실책
아델
열람
큐슈
피질
##디우스
##eder
les
지리산
컨디션
1795
스틸러스
중앙일보
内
岡
랄
##드래
##스텐
##야카
당역
독실
마초
변했
오보
장강
축복
칼빈
캐피
협곡
##저기압
등록금
통틀어
헬레니즘
型
##기획
##니코
##ars
##red
rs
동종
마한
반납
선회
아츠
의인
자위
잔혹
잡혔
펜싱
호른
##ific
##ions
알아차
이준용
통폐합
마스코트
弼
約
鏡
엎
##금융
##ope
나사
다윗
등각
버릴
산책
송파
율령
해남
행선
##ning
급제자
도마뱀
george
network
##ipp
결단
국악
달력
독성
발진
부러
빌미
사체
유민
유보
##시우스
but
ngc
광복군
아이누
안중근
앙골라
코스트
##ility
두드러진
아랍에미리트
##비노
##크너
구독
다우
불문
스쿠
엔드
윤원
잔치
제방
출정
tor
공양왕
김종직
떠올랐
백두산
스탠리
올라왔
일제히
행해진
enter
##30
##쓰네
##의당
##젤로
##학당
##umb
겨냥
결탁
산재
오언
전란
정직
즐겼
추밀
##메데스
##idae
유년기
은하단
조용히
참여자
jean
publ
real
패배하여
##데자네이루
퉁
##보내
##ule
ol
sg
뒤덮
멘델
시효
제리
조우
천궁
평방
피스
##고로드
gar
대표곡
마르셀
올리버
1853
west
크리에이
##no
삐
##라우
##림사
##티지
가선
논설
라벨
마구
산문
소량
오메
우체
유위
유이
인성
책정
플리
항체
호전
##미술관
hel
어웨이
지평선
후백제
stre
브리티시
서울중앙
요코스카
패러다임
세키가하라
안티고노스
클라이맥스
science
##pp
摠
聲
##남면
##주크
bb
가닥
강습
군기
당장
사하
섞인
여명
외상
우림
자존
춘계
충신
클루
판별
235
공격력
교육학
세운다
스케줄
화학자
휴대폰
##olution
곶
##렐라
##천왕
##호마
##osa
덧셈
볼록
시편
오로
카일
해준
들어선
사이먼
예문관
오르간
저수지
정착지
play
줘
강인
공문
구석
국세
노엘
뚜껑
산정
오딘
오산
우대
친히
후루
##지스터
fin
라이너
라쿠텐
중앙선
합쳐서
한양대학교
兩
封
改
至
若
雙
낯
퀄
##딩스
##루엔
ym
말소
매복
발터
보로
섹스
악당
애호
자카
정칙
증축
첼로
캐롤
209
dou
도망쳐
필사본
5·16
year
베르사유
단국대학교
레닌그라드
아르바이트
프레임워크
##바오
##질라
근위
다방
도색
멋진
바우
보성
설리
애매
쿠로
키드
해질
헤일
##ural
돌아올
요나라
유태인
자릿수
쫓겨나
카카오
1832
디렉터리
아오모리
유틸리티
뉴잉글랜드
件
##고개
##군수
##렌스
##바퀴
##정당
감당
공지
괜찮
금관
도감
양분
역모
조동
타마
파열
##베이스
레이건
방위군
초신성
초콜릿
한다며
후반전
1836
가로질러
도네츠크
소프트뱅크
michael
貪
##심원
##min
국면
데르
변장
북인
사목
지린
치마
막시밀
스피커
참모장
피닉스
함부로
라이온스
미합중국
考
##볼라
##증권
개축
김보
낙랑
뉴올
모였
비긴
알로
어둡
엄지
월북
증원
천태
카미
핼리
set
개체군
여주인
카메룬
아비달마
카탈루냐
懿
도도
양파
적재
정오
출항
바빌론
사생활
오클라
이론가
현미경
1852
가까스로
이오니아
히로부미
light
브레이브스
い
乘
##해방
교우
굶주
던전
목동
복부
육식
책록
해킹
로큰롤
시나노
조각상
집어넣
于
樓
##ush
fo
ns
걸프
광양
납작
니스
모기
성북
악의
자켓
전보
행한
sem
마그마
새정치
오리엔
이범석
하노이
해부학
檢
##텍스
명상
박찬
범람
소프
육박
파격
한수
향신
##라이프
##파니아
##프스키
##플라스
was
수원시
스케치
오스카
타이탄
돌아와서
신성로마
필리포스
웨스트민스터
晋
##끄럽
##버거
##심소
##알라
##연상
강유
박용
중랑
틈타
한꺼
##ther
boy
사이공
1300
실시하여
클러스터
프란시스코
direct
##fi
##wc
向
##도우
##욕장
ni
가곡
관동
매질
문건
사보
진심
##라이스
셀레우
쇼핑몰
스러워
청주시
패스트
glob
한꺼번에
라이베리아
龜
짚
##정제
ga
견훤
계란
구전
노브
벗겨
수질
이견
정승
직각
바닷가
셀주크
크루즈
1392
신노스케
일본서기
카디널스
오클라호마
트랜지스터
켜
##덕궁
##루프
##순서
##ham
rx
군림
무쓰
수혈
엿볼
오즈
장차
푸젠
##웨스트
est
비잔틴
1837
시킨다는
유니콘스
manag
commun
洋
補
##통상
##트레
관아
꾸미
손쉽
스릴
안도
유감
정언
진성
커트
태세
혼돈
##첸시오
적절히
cell
브루클린
크리스탈
##mi
單
룽
##린트
##원수
두르
매듭
수체
조율
처칠
팔린
fer
non
바로잡
빼앗겼
습니까
매일신보
인수하여
##다테
##하르
##화가
구비
국화
낙엽
내일
드레
레몬
비방
상계
생리
서클
성간
아쉽
영위
오시
의령
천적
추계
패자
힘쓰
ant
길거리
튀르크
jour
선거인단
house
메트로폴리탄
奎
쯔
##문고
##ada
곡률
동률
분개
성수
악역
안식
열풍
저해
전의
코모
탄력
화음
##레이스
어도비
입출력
제나라
회고록
그린란드
서프랑크
민족주의자
리우데자네이루
丞
句
己
清
甫
셜
걸치
고요
구루
솔직
잇달
치중
##두라스
##피에르
##혁명당
##rich
꽃받침
나눈다
남조선
부등식
크라운
포식자
피쳐링
소용돌이
토스카나
##fe
綱
땀
##루수
##무진
##elf
삼한
성교
윤회
일식
자백
초식
컴필
해일
hms
공사관
노트북
업로드
행정동
혼합물
pres
뉴올리언
들어와서
grand
thomas
펠로폰네소스
辛
##극단
##선도
##여지
##정리
##토라
거액
거품
끼워
논증
당분
변방
소양
장준
참된
합산
더구나
발사체
6.25
가르시아
뉴멕시코
폴란드인
##bt
##기하
##바위
##삼존
##생활
공평
과달
석기
쇠약
양쪽
에픽
하타
##관광부
##올림픽
lcd
기업가
데니스
모조리
비올라
시그마
에세이
오비탈
정규직
표트르
1842
로베르토
발달하여
베이시스트
브로드웨이
希
特
質
騎
뭔
##모닉
##평화
cv
hr
관대
국문
날렸
노골
대인
마모
생포
승선
일주
페인
##스트림
340
다면체
바란다
선언문
아테나
조합원
티무르
##iness
다리우스
마그네슘
적용하여
##ky
假
助
벅
##가키
##수사
##스퍼
농어
무왕
바쿠
보궐
소탕
솔라
열거
장타
준위
철기
추이
탄광
파룬
##스크림
##onic
##raph
221
esp
run
가져갔
생리학
성폭행
와이드
음식점
제국군
향신료
인천국제공항
##yp
夷
諦
##고사
##니크
과업
노름
논평
더러
상설
완투
포섭
##탈리아
##atic
##rown
농민군
아우르
왕복선
유스티
합하여
사이언스
스리랑카
유라시아
然
##의금
강국
배재
셔틀
수배
지킬
집사
##사이클
##중공업
##ella
nbc
창립자
1847
캄페오나
茂
##쐐기
##이사
##티프
##페어
##하트
##els
냉방
벵골
양면
엄정
에그
예속
적힌
채집
초판
한도
##검찰청
##드리아
돌아간
보리스
엑스포
즐거움
white
컴필레이션
##ym
僉
斷
穆
聯
숀
짱
그간
니케
당파
리보
마태
말단
반야
수은
쐐기
원효
허구
##ocal
atp
개찰기
다각형
데미지
로맨스
스태프
토론회
오다와라
聞
防
뜯
견지
결실
다채
부식
청군
치뤘
콜럼
후드
may
경전철
dist
니콜라스
엔트로피
트레이너
radio
##xx
滿
##디슨
권세
기욤
랜덤
러닝
모라
반증
역도
충동
특공
다비드
이바라
정확도
복음주의
삼층석탑
자연주의
조선왕조
엔터프라이즈
쏠
##든다
##민련
##수교
##업계
개전
고압
권하
루머
바쳐
분담
아디
야만
어부
이로
팔려
혈압
480
wil
가속도
성명서
수메르
아리스
충돌구
클리어
1597
依
煥
袁
윔
##어난
김희
도부
림프
머릿
무예
산기
욕계
행운
##베스트
what
온두라스
##fo
≫
##닷컴
##삼촌
##암리
##어가
##자재
##토크
##ior
교묘
군마
끊이
남궁
바투
발송
발작
변천
신궁
심상
유재
코뮌
##mann
lib
web
가입자
베이커
사할린
액세스
여행자
##ister
암모니아
주장하여
착공하여
剛
製
##마니
##미오
##버전
dh
견습
교지
말러
본능
세그
코로
mir
내려온
안철수
클라리
프린터
##press
경희대학교
問
浩
##식품
##쟁이
##팔렌
감탄
달렸
만루
문교
사부
생장
양념
용역
의제
입적
좌천
죄인
##아니아
802
que
급기야
노무라
도야마
북반구
사무관
수도사
히어로
1806
1843
끌어들이
캄페오나투
##pg
增
屋
##사병
##오세
기린
대열
영미
윗면
으뜸
이만
자부
총살
타고
현악
##한다는
370
dev
사랑채
유기체
절대로
진흥왕
드러난다
빠져나가
인노첸시오
夢
##동원
##민정
##eck
각광
도자
아쓰
외가
유폐
조현
남북조
방송인
어려울
잇따라
1841
만장일치
받아들인
여러해살이풀
##ja
π
汝
藩
隱
##레앙
##보우
##시온
##팽이
##퍼트
고트
금기
느라
타지
하동
헤센
##리스마
##자니아
206
본부장
브래드
암스트
어리석
연금술
제프리
지하역
##ional
도시철도
space
헤르체고비나
散
##가요
##니즈
##타라
ok
낭독
문맥
박중
신숙
유루
이색
자재
풍기
##레이즈
##직할시
dep
도상국
변호인
수증기
야구단
정나라
취약점
스트리밍
records
##xy
帶
蘭
엥
##원지
##플레
경멸
계략
과부
괴뢰
대방
맞섰
아연
아흐
양원
정일
중후
처했
청중
푸스
한참
bit
nav
관동군
기획사
도나우
록히드
시니어
호기심
1794
prot
사도세자
위키백과
south
아우구스티
이탈리아인
役
##눌프
##신저
##전국
##크리
##타야
귀순
단호
리어
셔츠
슬퍼
쓰루
연유
우산
이니
정철
혼용
휴게
##독립당
dfb
two
대제학
두바이
모델링
서초구
슈미트
여러분
예비역
청구인
파룬궁
다카하시
摩
桓
漏
輪
##가노
##방스
##으로
##키요
##판사
남경
댄서
무위
생몰
수구
심법
안건
영락
재가
종친
주루
지단
특혜
필살
##대학원
##ient
##iter
bur
김종필
마피아
에버턴
외무성
크레타
파충류
1844
just
team
求
띈
##건적
##몽골
##와나
hu
가변
기교
난입
덩굴
동체
로런
모빌
미르
북상
생생
성동
소홀
손오
에나
왕좌
의대
자갈
##기념장
대리석
사다리
지방관
토요타
학습자
1831
아이파크
움직인다
嶺
講
##개석
##생명
##소송
##은하
겨루
괴팅
귀납
꼬마
선단
성형
쇼크
쑨원
억류
염화
옥상
차고
해피
##연구회
211
leg
mad
엄밀히
에어로
에이지
특이점
포위망
포위전
1813
받아들일
사단법인
열린우리
green
諫
飛
##스탕
##vin
개리
계룡
데드
로시
로컬
몸집
뮐러
비참
사죄
용사
점토
패주
폐렴
화교
흡입
희박
##그래프
루도비
베테랑
앞장섰
울릉도
와타나베
투니버스
판단하여
열린우리당
institute
末
##로자
##해양
기물
늘렸
모션
모후
사흘
선공
섬겼
어족
여생
유자
접목
협업
##리어스
utc
xml
디비시
미토콘
실리콘
연구실
연구진
외계인
인문학
줄리아
출판물
합쳐져
몽고메리
자리매김
막시밀리안
@
í
벙
##나모
##아라
##춘추
규장
매번
베스
스터
알마
에두
열망
주시
추궁
콤비
##ware
간호사
남반구
##라이어티
hell
road
내셔널리그
\
##인권
##형제
##gen
따지
미츠
발자
슈뢰
신주
액수
예멘
예편
오호
윙어
이각
첨부
키웠
펀치
한해
홍익
##ness
sky
단기간
마코토
받침돌
쓰러지
올라갈
체인지
hard
나가시마
미토콘드리아
寅
計
##군다
##뛰기
##사드
##com
교학
귀여
도표
메탄
모닝
미숙
변조
보아
새뮤
여긴
재외
칠성
콜드
맞대결
무너졌
수요일
통계청
##gm
烏
續
雜
멧
##무덤
fs
걸맞
농작
법과
소망
수역
이설
질의
켈빈
850
건너편
alex
fest
라이센스
醫
됩
##누이
군국
나날
내림
덕수
병풍
본가
비료
비욘
서지
연하
와해
유장
탄원
파파
현청
ins
데이트
동북부
저지르
천왕성
총리직
1835
name
슈퍼스타
麟
썰
##독일
##렉트
##로키
##oid
tn
사연
성원
성자
시동
주술
##onom
거머쥐
게이머
다닌다
단체전
대관식
배상금
서보장
의용군
태그팀
##코프스키
1845
##담회
##모드
##제철
##처장
반열
안락
에리
에인
엘프
예견
이희
전동
존엄
주계
증직
초석
특명
hor
usa
van
고타마
이영호
좀처럼
1636
세종대왕
콜럼버스
human
페르시아어
society
##26
辰
##cus
##erv
##ura
구강
못지
산간
요도
인출
재야
조니
줄였
풍요
피처
한미
화순
##시아키
명륜당
무찌르
여긴다
의병장
정유재
항생제
baby
셀레우코스
조선왕조실록
##80
刺
##던스
##카게
##틸렌
##파니
##환경
##회관
mw
rc
강가
결집
관저
급습
대적
디바
모어
부녀
숭실
영도
찬탈
##주자사
##ison
건널목
교차로
대머리
서둘러
영화관
출연자
포르노
하카타
酒
ia
고증
미묘
박재
봉작
앨라
여순
위태
전액
체첸
추위
튜브
홀리
##드래곤
##라카미
rob
다카라
모여서
보르도
앵글로
에어버스
格
準
端
##대비
##려야
##링거
##메오
##무실
##젠가
##치원
##테아
##협정
러시
박경
버퍼
보손
분쇄
아칸
용접
정읍
제식
종실
케르
합장
화북
권력자
배수량
센터백
스나이
오우치
아이치현
암스트롱
트라키아
피타고라스
丸
##조직
궤간
깜짝
느슨
능통
비정
석불
수뇌
안주
열기
원곡
쪼개
총체
포탈
##예비치
##cher
225
기네스
명왕성
서남쪽
정규군
플래닛
##ittle
1799
jack
고바야시
joseph
##-9
##ho
##주식
##lay
##uth
uk
광경
발열
벤츠
북해
수온
이강
직함
폐단
가로막
구석기
문무왕
보니파
사림파
유전체
한정판
권위주의
아드리아
오브젝트
버라이어티
##란타
##리가
##순환
##터널
nd
경화
나스
불황
비약
수렵
수문
잉크
231
레이디
루카스
1821
band
여주인공
추가하여
域
易
##반트
##여대
##차크
듀엣
변제
불평
섬멸
아호
액정
오름
카레
##idge
aug
roy
오리건
이마가
정착민
코트디
1798
princ
##ов
亨
樹
##도감
##무트
##전사
ai
궤멸
내쫓
도화
상온
소서
술집
약품
접시
지로
초계
포상
ebs
fbi
돋보이
동남부
됩니다
새뮤얼
서기장
시아파
제품군
코페르
항소심
헤이그
mach
도미니카
服
##데냐
##부키
##iii
교포
당상
신겐
신관
애자
연임
율곡
이덕
이철
착안
틀림
표했
757
베일리
쓰러져
이민족
합병증
허정숙
이바라키
카리스마
##li
##던트
##선왕
##성이
##워진
##혜석
##ico
가모
본진
새턴
세탁
송병
수퍼
심부
연좌
우스
출진
탄성
표상
한가
##ason
한니발
마르쿠스
일리노이
형조판서
##년자
##단지
##르노
##우병
##타사
##las
##ram
김학
난자
리히
법제
살피
양지
역행
원균
인솔
일간
입찰
편차
번갈아
요금소
중서부
지리학
지원자
1796
1803
더불어민주당
신성로마제국
選
촘
훅
ut
군관
매춘
변증
시영
야권
역동
포진
피자
현생
##드랑이
검정색
교회법
김유신
레이다
문하생
조선어
콜린스
티라노
드레이크
오세아니아
저널리스트
코트디부아르
恒
敏
珠
由
誌
遊
鳥
##재기
ae
고취
공관
교란
도보
메사
보육
복싱
수주
씨름
유흥
전극
정맥
탄산
##기하학
bon
get
pac
겨울철
당뇨병
유명세
컬렉션
1783
1790
연결하여
north
с
尾
擧
##기업
##루이
##르스
가전
개간
단수
더한
밑면
볼드
삼도
석재
영월
으론
인테
전곡
칼륨
파고
##소송법
##코스트
##span
무너져
손바닥
일간지
잎자루
form
mpeg
구분하여
반발하여
오프라인
##ος
챈
강판
마돈
명장
불펜
살상
장흥
주필
탄환
퇴계
lan
사보이
안기부
이제동
타일러
1763
임명하여
##여자고등학교
올림피아코스
갤러
고하
대뇌
문성
보두
소의
수화
신작
심왕
암술
압송
열광
재원
전각
제보
펜타
핀다
효용
##ally
hom
imp
kst
내세운
도리어
수페르
신세계
재무부
증명서
쫓아내
화요일
book
아르눌프
뉴올리언스
錦
##뮤직
##시대
##여객
##진구
##파트
격상
관악
명동
민가
병인
상투
피니
항모
##ship
440
sql
계약서
스릴러
1809
data
무궁화호
물리학상
정유재란
삼국지연의
細
##각류
##무제
##베인
##상블
감명
게일
굴욕
김장
남로
단양
실습
아지
오마
중전
취락
현립
호스
##장로회
##ople
ast
괴팅겐
드러난
영연방
이랜드
표준어
떨어뜨리
트리폴리
툰
##라비
##이족
##지붕
##찰사
##파티
##현전
##era
간소
백자
버진
시판
안다
열전
욕심
절도
차오
청송
컵스
##루엔자
215
how
베이컨
세일러
언젠가
향한다
가입하여
국립중앙
제작하여
克
好
洙
벚
##니와
##본부
##체어
권투
더라
리키
맞닿
무당
부엌
소주
실태
약정
이도
장조
전황
제타
책자
통찰
하순
cir
재정난
혁명군
down
알베르트
랠
샴
##경궁
##공학
##살라
##육군
논산
마나
미망
범용
송강
앨버
욕설
타파
피리
현명
호감
207
나혜석
주연상
중국군
찾아온
카운트
퀘스트
레드삭스
콘테스트
啓
廉
黑
꼼
짠
##도카
##디크
##미츠
##에타
##ily
ct
고갈
광택
광합
독소
먼로
블랑
유림
이그
투병
호엔
국무원
라치오
액티브
움직여
의원직
이케다
타이밍
토착종
형무소
후반부
동국대학교
church
street
##mo
兒
蘊
##ros
각룡
김천
두껍
세도
슬럼
유카
융희
임베
쟁점
촌락
커넥
##orts
far
레코딩
려다가
로런츠
부사장
시게루
인스턴
창덕궁
호나우
중성미자
모터사이클
征
指
翰
##델링
##징어
##oul
냉정
달마
무거
박동
배드
스콜
이면
포자
jan
wom
농작물
동의어
사마의
허베이
구성하여
델라웨어
돌아온다
미성년자
브루크너
필하모닉
베오그라드
아이스크림
證
##바꿈
고독
남이
독려
속이
요셉
울음
택하
##경기장
가까웠
옮겨갔
전시관
정보부
1775
성공하여
以
回
放
策
簡
紅
##광사
##도록
##우마
dl
감속
기함
능하
번선
생도
수당
아그
우문
유혈
은둔
전횡
주상
충숙
코사
##놀로지
까마귀
여객선
저장소
피드백
학술지
##보스토크
1805
port
코퍼레이션
##hd
##나지
##팩스
미러
불어
비지
서안
이선
점심
증류
한중
홍성
##이치로
psp
지도력
필리스
##아이레스
1804
사르데냐
익스플로
프로방스
그리스도교
control
##60
妙
돗
##시키
##진당
##참모
##커우
##티보
ef
기일
나바
납품
담장
바덴
박격
삼위
샤프
위즈
음색
종주
창씨
쿠페
편하
하체
한라
항문
헤더
##포켓몬
365
시에나
일렉트릭
##bl
탬
##두사
##벨리
##정책
bs
ff
쓰네
지반
청조
최경
칠곡
한옥
황보
회차
##중국해
##토리코
##한국당
경기력
낙하산
레스터
엉덩이
트로트
현저히
##지방법원
fran
ymca
아이오와
카롤루스
comput
부에노스아이레스
叔
詞
##벤션
##세프
구치
군의
급사
깁슨
까다
나한
내시
대세
물의
박태
백운
생김
소포
영천
이교
지치
학비
호찌
효모
휘트
##신학교
교육감
네바다
리베르
연습생
올라온
임의로
무라카미
참모총장
안토니우스
코페르니쿠스
블라디보스토크
마이크로프로세서
##ск
′
愼
##평리
##its
교주
교착
기악
독단
자객
태워
피크
헌제
혹평
효자
tem
var
로페스
모국어
보라색
석회암
외삼촌
우간다
쫓겨났
호찌민
서스펜션
이화여자대학교
렙
##얼빈
##전력
##차례
관철
문어
미인
볼륨
아픔
앤서
웅장
인삼
홍백
##티나이
fta
tal
동북쪽
사나이
풀려나
1810
인플루엔자
후쿠오카현
언더그라운드
##po
圭
##람스
##블러
##야르
##yth
ju
경수
국고
균열
누에
선방
성산
신간
오경
우디
잊혀
전폭
지뢰
직구
침수
카슈
회부
##거래소
equ
노비타
늘어난
디렉터
성폭력
정착자
주택지
하얀색
가담하여
룡
##복지
김은
라자
만연
배영
상향
속박
어기
이대
작자
초보
카툰
화신
화풍
효성
##나이트
##매니아
##부상서
208
4·1
광화문
세례명
유가족
1833
drag
드래곤즈
아나키즘
프로테스탄
engine
##my
話
遼
킵
##미노
##오밍
##큐어
##uct
경치
그램
닛산
박제
분양
세차
소마
알현
워낙
종단
타라
태화
톨킨
##레코드
sar
가야금
다시피
댈러스
도승지
##여래좌상
1834
탄자니아
폴란드군
일렉트로닉
點
랍
##게르
##엔터
##워치
##정신
##ida
교서
궁예
넓혔
문중
밀교
비호
빅터
사나
연어
월급
의성
이뤘
정글
정토
조력
차분
천억
##코리아
##adem
대륙군
마사카
배트맨
법조인
보두앵
서북쪽
유니언
작사가
해리스
행정구
혁명가
1593
1787
1824
2019
입대하여
皮
署
衡
##배마
##쇼프
##저리
##제자
누각
대면
서체
수류
습윤
쌍방
안톤
여관
전륜
학급
화원
cit
ros
교육청
마르티
불러왔
앙상블
엑스선
와이어
유망주
종착역
트란스
펌웨어
fact
라플라스
밀리미터
호몰로지
殷
##리츠
##서치
간청
기치
마늘
매월
미약
산신
소란
순사
심소
윈난
제구
지야
출소
허들
호지
##라이브
##야구장
##arch
301
바나나
분류군
스레드
취한다
모자이크
이탈리아군
콘스탄티노플
푸에르토리코
christian
敦
##깨비
##미드
##엽수
##투어
##특위
각인
강압
도다
루손
방조
배리
성부
성채
애프
여정
전갈
하스
하키
##바도르
##주머니
##ious
레버쿠
삼각주
생몰년
볶
##티어
각별
개폐
거둬
네임
미모
새기
성조
수난
와다
이구
임사
접착
하향
ova
squ
게이초
라든가
마천루
무서운
셰퍼드
어드밴
제이슨
클레오
패트리
하얼빈
##겐슈타인
무너뜨리
트로츠키
테러리스트
little
厚
威
寫
扶
望
梅
食
돛
##를린
물병
방탄
베티
북송
선지
성충
수선
스모
신천
앙주
원망
척수
표결
헤아
혹독
화의
##레인저
##린다는
##문학상
##ider
lim
men
서남부
안산시
중학생
치른다
태블릿
##니아누스
moon
고시라카
##86
宰
뫼
탭
##롤라
##청사
##쿠마
##타바
##헌법
거스
금리
레스
민회
성년
이고
장서
커맨
해금
##민정음
가속기
모질라
##주식회사
1818
1819
meth
young
보나파르트
##계사
##니히
##여진
##원자
결점
골자
교명
구했
글렌
기형
김선
달콤
당부
등대
레퍼
멜론
미켈
상동
소라
예제
온전
친절
켄트
탐욕
폴라
고르바
장갑차
드레스덴
organ
민주공화당
##vi
演
骨
##사태
##케르
ib
강진
결속
고혈
노라
대정
린네
본당
북진
사키
쇼팽
수능
슬롯
제고
주성
체격
판관
형광
##ique
233
jon
명백히
사법부
##ander
mill
레오나르
성리학자
승진하여
파르티아
로드리게스
##_3
俗
題
럼
큼
～
##하드
pu
로만
석상
승패
이공
지날
청렴
학점
후추
대니얼
데려가
디나모
치료법
콜라보
1100
camp
알프레드
고르바초프
서아프리카
핏
##붙이
##옹주
##ely
##ral
낙태
네스
눈부
당명
대진
로러
말하
묵시
버락
서간
잔당
공주시
국무부
귀퉁이
기생충
노르트
사생아
아닌지
알칼리
충실히
트루먼
그래픽스
디비시온
임베디드
클라리넷
훈민정음
則
籍
育
##광석
##수원
##아노
##엔드
##ipt
경마
대파
도식
부응
사대
선주
요가
이효
제향
즉흥
최단
케로
포켓
호대
히바
건륭제
교수직
남로당
다문화
데뷔작
몰아넣
시트콤
영등포
조만식
조직원
충선왕
하이든
통과하여
party
##ns
祥
藥
超
##날두
##도회
##돼지
##체스
##nal
kc
고창
교인
궁지
문묘
본대
성직
수아
스왈
시해
아요
안토
오도
외야
의화
이아
점하
제각
지석
철로
컨페
패럴
펀드
폭우
품목
후신
훔쳐
##프리트
##하마드
212
420
key
루터교
바꾼다
바실리
앨버트
찾아보
champ
티라노사우루스
##남동
##레미
##모자
##aut
감히
골수
공물
교동
난간
매기
미워
비기
수계
이한
좀비
참관
치수
파주
호노
tur
매디슨
아가씨
알브레
앞장서
전봉준
주의회
지원병
테바이
##축구협회
1598
york
아우구스트
비트겐슈타인
曺
##와인
##화경
##ora
ot
간통
꾸짖
떨치
성왕
야행
외세
자력
저우
줄임
지병
친하
쾌락
페론
##스카야
마라도
시에라
아르테
키워드
1807
도카이도
독립하여
레닌주의
리모델링
아미타불
요시아키
롬바르디아
港
雅
뮈
읊
##바브
##승람
##쓰나
##지리
공덕
대양
동자
리저
베드
보카
부결
부영
부화
뽑히
엠블
영암
오랑
인피
전서
종반
탈옥
한서
허영
238
310
aek
마포구
반대파
분홍색
에트루
외교부
전사자
해운대
mnet
시리우스
오를레앙
service
丙
倭
未
##드릭
##무장
##시인
##연군
##제비
##화상
ci
광동
김석
마틸
섭씨
성내
셰이
연마
유창
조제
총알
##선거구
ghz
다가가
다름없
사가미
해설자
##더레이션
##earch
차례차례
네덜란드어
people
##ny
勢
팻
##티르
kl
pk
단파
대광
리에
마트
멜라
불복
선한
설법
섹션
섹터
속임
이삭
장엄
정중
##노세키
##당하여
##더니즘
##ague
기부금
나뭇잎
더하여
로렌초
로저스
연해주
영화상
웨슬리
호날두
##펜하우어
설득하여
에트루리아
##zz
è
禹
##노지
##레지
##레크
##박이
##빼미
##어내
##와트
당사
도독
마른
신빙
양양
양정
원기
유관
익산
익주
표어
해커
헤지
##그리스
신숙주
아이튠
원한다
익스플
잠재력
정말로
케이트
피스톤
호소카
환승역
휘두르
아브라함
##++
裕
願
##기즈
##레반
##ren
금천
길가
마신
마운
습도
에코
에페
입안
전집
점대
테헤
파드
파탄
후난
##ense
랴오닝
컨설팅
후임자
히브리
##레스비히
하나하나
동아프리카
richard
略
령
빽
권익
두만
바랐
벽면
보령
수서
수에
스톰
약제
창안
하세
222
가디언
안정감
알베르
앞세워
이규완
코로나
타블로
mass
langu
받아들여졌
쇼펜하우어
europe
僕
契
##국립
##그림
##노이
##오루
##혜왕
##box
게놈
노획
도봉
명맥
박인
번번
분투
불순
사조
서당
소사
스완
안상
였었
우쓰
정약
체사
하츠
##문학과
##테우스
##프리드
##itch
거둔다
기다렸
도쿄도
로이드
마돈나
막바지
방어력
베이직
상세히
수수료
자치체
한하여
prof
합병하여
research
影
襄
쥘
##ski
노아
리사
민자
밝기
시료
신구
종일
필기
회합
214
430
cle
eff
경영학
대대장
미우라
비욘세
오토모
원정대
이브라
bill
유니코드
이야말로
켐
##넬라
##쓰카
##첼로
##큐슈
광석
김시
느려
뭔가
방랑
서머
설사
쓸모
인신
저온
저축
정시
종가
준하
즐겁
킹스
헐리
후면
##바르드
##카운트
950
nov
가져올
경제력
분화구
앙드레
우주국
지켜야
픽처스
북베트남
global
사우스캐롤라이나
^
냥
##그만
##놀이
##보험
##어졌
##카레
##콜로
##투라
간장
내비
된지
마티
만회
수강
신명
실로
어쩌
이석
이홍
쟁취
추봉
출제
친숙
해머
현내
##스타운
모여들
비엔나
저작물
조각가
창업자
트럼펫
항공대
##ument
code
fire
뮤직뱅크
분리하여
플라즈마
field
파나티나이
한국독립당
social
theory
季
뛸
힉
##마침
##벌리
##본다
##소장
##완다
##진보
##카테
##킨슨
##프셔
6·
계책
담수
디에
맴버
배설
뿌려
사와
살림
선별
성찬
열중
예리
예우
은지
카다
코넬
탄화
푸틴
피력
한탄
호국
##디스크
루이즈
모아서
아르키
에테르
우체국
원동력
프론트
후견인
스맥다운
스포르차
트랜스포
louis
중앙아메리카
注
##데사
ks
고작
나토
네브
독신
루소
모셨
발화
소피
입선
친교
칼로
홀드
흐루
##든버러
##ford
spe
syn
과선교
박격포
일수록
지바현
흑사병
1610
soft
나카모리
루즈벨트
앨라배마
프로이트
again
사이타마현
중앙대학교
切
屬
難
둠
##미나
##서울
##슈트
##자카
##장자
##esh
##mas
간편
고야
관원
괘불
구세
냉동
메스
명주
박기
빈약
외젠
음계
이가
이발
카타
##alth
sea
고스트
규장각
밀어내
버려진
부천시
세네갈
이와테
anal
대법원장
条
훙
##나크
##집론
##ird
교감
기독
세타
스펜
쌓여
아레
어딘
어라
오슈
인척
조식
직권
집약
차질
총수
측도
투사
cha
khz
나카노
남아공
부활절
브리스
사하라
선데이
어쨌든
오와리
자치령
폴리스
head
고고학자
고전주의
민주노총
다카라즈카
digital
匡
最
繼
##발라
##여성
##전서
##키치
##후사
가한
단련
문의
미녀
발췌
법당
오두
처단
품계
회생
##덜랜드
290
thr
공기업
끊임없
데이빗
동인도
스위트
정신과
카운터
휠체어
pass
리하르트
수양대군
에든버러
외할아버지
賜
逸
벳
##단장
##총관
##gin
##lam
||
그란
레저
무공
상권
성제
안면
의금
재고
코이
퍼부
피지
후렴
223
720
dar
jun
만화책
스네이
어우러
엄격히
집현전
##여지승람
##츠부르크
1689
동프랑크
변경하여
정규리그
design
컨페더레이션
special
卷
##곡선
##그란
##문사
##복음
##상가
##시다
##아과
##에어
##조사
##타도
##협력
##esa
pv
견딜
곤살
기주
다나
단념
도량
따를
매슈
몰살
불의
성현
수작
숙성
순정
오트
유표
주살
청진
초거
학창
737
luc
sir
그려졌
로버츠
목격자
서기관
손오공
알아냈
옮겨가
으리라
음반사
주세페
치료제
##ather
서대문구
애리조나
차지하여
엔지니어링
island
曆
##스프
##캥거
##코지
##쿠치
hs
거물
결번
교신
구급
도핑
말린
무릅
셔먼
습성
실황
심슨
열등
재량
재심
코프
쿠하
크릭
템플
폐간
헤딩
화친
##브란스
##케이프
cra
개막식
이성질
충숙왕
포도당
포스코
하이델
##교통공사
1808
cult
라그랑주
리바운드
마이니치
문화체육
네이션스컵
성균관대학교
festival
##왕국
강구
구운
누워
때리
라부
명했
상회
선법
습기
장경
전경
전태
정강
정려
중흥
촉한
한기
항거
행했
환기
##자유당
노나라
따라가
빼앗긴
애벌레
여름철
진주시
후시미
child
洲
##디안
##바람
##원구
##gar
놓쳤
당도
병용
블룸
승천
쌍용
이등
춘향
타로
택지
항등
혈연
660
gpu
가부장
달려가
사무엘
원정군
자존심
지원군
평신도
학년도
1780
레오폴트
선택하여
journal
program
程
##매기
##제일
김택
데쓰
민첩
박차
병영
샤오
송준
수첩
앞당
어셈
장지
카와
캔터
테베
하자
해동
##burg
311
his
pas
남겨진
바스크
안재홍
여겨져
우르바
재학생
5·18
##yd
徳
쑹
##네세
##마뉴
##ery
##ucn
##ven
거장
결부
금광
기력
봐서
수훈
절연
합방
경영진
메신저
생산자
혼마루
茶
軒
##바겐
##역사
##포리
곡인
구나
뒤지
리차
반달
부락
예금
옹주
인맥
접종
침착
카노
캡틴
케리
코민
타계
포니
푸르
흡혈
5.1
lov
vis
로리타
순양함
실린더
전조선
중대장
gala
post
rain
##cy
σ
к
寬
筆
폈
##마라
##신당
##ape
lm
가는
국자
김부
뒷날
반구
백남
선덕
영제
올랭
원치
은사
장령
천정
후생
##레르모
##예수교
##ible
##omys
생산지
오슬로
위클리
카지노
프라임
호모토
1838
iucn
tele
test
기아자동차
##40
##gs
廷
納
翁
꿇
뛴
##곡사
##민회
##진호
강수
경감
남문
도비
만찬
문란
바울
번복
봐야
사네
세컨
스팀
심했
윤영
은총
적성
최충
행상
홍명
##캥거루
모터쇼
밝혀냈
불태우
아리랑
아이유
유목민
프로필
1788
brit
under
union
슐레스비히
크리에이티브
##ks
ا
震
슌
##금속
##농업
##러니
##보트
거창
고스
과테
로제
로타
미신
바뀔
발단
보신
성상
소인
속국
여장
연일
융성
장승
최정
크세
필적
현령
##디자인
##베를린
##하이머
##ince
mig
고려대
소학교
쓰러졌
주황색
클라인
1453
fore
마쓰모토
미스터리
break
알브레히트
밧
웸
##귀비
##츠미
vf
각오
격돌
노릇
반장
부기
스바
정산
카렐
타국
한진
##urus
390
mob
강서구
귀족원
무사시
생김새
아쿠아
아폴론
캅카스
피오렌
학부모
1624
계몽주의
알렉세이
컨퍼런스
積
銘
넉
##나치
##레노
fk
hz
기로
김주
난방
무안
버밍
사세
생사
스펙
원추
유실
일차
진천
진평
헌금
##스카이
군단장
레인저
선수상
수행원
안데스
옮겨져
추밀원
토착민
피난민
허버트
##ester
프로펠러
produ
梵
씬
##티콘
##폭스
기노
기류
기약
나나
뜨겁
라미
로리
서광
야코
양동
어진
와트
우등
음란
전광
최규
추앙
태상
풍토
픽업
향리
혼슈
##세데스
bsd
때마침
발행인
장덕수
제공자
제후국
트레일
그래미상
니시테쓰
플라스마
style
train
##그루
##만주
##모델
##보냈
##자네
##제품
ud
남짓
모를
모면
분립
비시
선더
수차
영하
영해
우기
위문
유린
이창
지브
특례
퍼진
하룻
하산
회군
217
매니지
문교부
보행자
아이다
아타리
올바르
윤선도
현악기
1777
1797
다이스케
染
歸
環
邦
킷
##미어
##장성
##호크
##get
##oca
김문
내한
면접
불멸
여대
영덕
외벽
의향
이변
이십
청해
체온
타겟
호송
##소시엄
bay
기울여
벗어났
보호자
스러웠
전투력
주간지
초전도
페드로
hall
hand
마리우스
할지라도
##ograph
祐
童
깼
닝
##키나
##행정
가니
구면
김도
꾸려
매료
명인
모사
밸리
삼천
서강
서고
심취
역습
의외
의전
조예
초중
카펠
퇴화
##메이커
##버스터
##어머니
940
acc
apg
개그맨
기하여
사업소
수번뇌
안타까
전망대
진주만
##사범학교
##velop
1644
sign
개인주의
##양함
wa
가든
각계
격분
군락
기복
길목
만달
망막
북제
사표
숨졌
압류
양천
완행
월경
위엄
윔블
유품
종용
증설
차후
파헤
포에
학제
헬렌
##콥스키
bat
mal
달리기
떨어질
레이테
번역본
시미즈
엘리스
연세대
정찰기
포세이
1778
실패하여
never
메르세데스
콘스탄티노스
한국방송공사
business
会
巨
財
##바사
##수염
##카즈
##통감
걸릴
궁녀
단역
데루
로펌
막혀
반원
산탄
입회
채운
퇴사
트램
펜티
한류
##가르드
##리스크
##슬라브
bud
개최지
대문자
로널드
마인츠
법학부
사투리
접근법
피처링
해수면
vers
세르게이
##formation
斯
簿
##난히
##다카
##덕사
##델라
##도전
##디시
##포도
##ker
고후
기틀
달래
도기
도조
롤러
마젤
문항
방황
베버
불로
삼존
알론
장현
제반
천왕
취역
푸시
한학
황궁
##국민회
264
교수형
생화학
조선조
카오스
타고난
테헤란
오렌지색
프로듀스
애슬레틱스
테크놀로지
##엔터테인먼트
亮
紫
팟
##더기
##버섯
##하리
##희재
##asy
cu
겸비
구례
베다
비닐
시녀
식년
의리
이두
지루
카리
캠벨
탁발
파멸
cry
다섯째
박중양
사육신
선언서
스텔스
시노드
실종자
제작소
해설가
해인사
1825
삼위일체
management
宅
庭
昇
欽
##다녔
##득점
##성당
공비
기작
니키
만기
명실
문부
선서
이분
착한
청탁
jac
jul
들어올
수공업
수류탄
사망하여
손꼽힌다
언어학자
유니버스
라이프니츠
corpor
刻
덥
##로봇
##양성
##울리
##티카
깔끔
낙향
놀랍
두부
로코
마취
망가
무마
새해
생년
수마
집시
치킨
컴포
콜린
타개
투고
투과
트란
페가
환국
만주족
보수파
송파구
수신기
쓰여져
오카다
완성도
창세기
클로드
carl
know
스포르팅
영등포구
팔레르모
세르비아인
惟
##니엄
##비지
##상어
##일라
##cha
wc
거센
근친
누락
딸린
레비
로망
미움
벌써
보그
빽빽
색계
소각
시술
식료
아람
안시
어필
육아
정병
처우
##바브웨
##사우스
##여학교
##외국어
공직자
넥스트
당분간
돌고래
몽골군
볼프강
테크노
##스크립트
##ights
##other
경유하여
계승하여
말레이어
사탕수수
여기저기
짐바브웨
technology
徒
밋
##osp
고운
공성
다포
도체
르노
사계
상쇄
성혼
수완
요아
잉태
잡음
장본
질산
타오
협연
횡포
##빌라이
##오피스
386
960
bal
den
고성군
빠진다
산투스
센타우
스케일
쓰여졌
웸블리
테오도
하야시
ball
conf
사실주의
요시타카
출장하여
콘퍼런스
frank
process
##hs
##레븐
##베크
tg
내역
누명
돌진
동백
무비
사옥
선풍
술라
시우
연성
영종
잡스
저압
탁구
향로
old
sym
수감자
일대일
전주시
지낸다
##축구연맹
1680
킬로그램
##ws
ᄀ
##가슴
##니트
##디온
##레알
##봉사
##신학
##어놓
##호쿠
nk
ti
과천
라벤
러더
몬태
방수
브렌
상체
소켓
수프
스캐
시복
심볼
업자
융기
쟁탈
챔피
총명
축전
표범
한상
fam
mel
도깨비
시부야
십시오
처해졌
1828
conn
educ
만슈타인
버펄로스
유럽연합
유학하여
盟
織
횃
##거북
개년
귀향
꼭두
디펜
마타
몰렸
범하
소관
스루
양궁
여과
제패
청풍
초음
투영
##시스템
##에이터
num
stx
드나들
상상력
수송기
신인왕
요리사
최고봉
후속곡
1817
맞이하여
호모토피
夜
罪
뺀
##규어
##나비
##식스
간간
관입
내통
덴분
도난
도합
디랙
라임
마거
목화
부록
분신
사커
생부
옐로
윈드
유추
음극
익사
전성
정년
찔러
호치
##리오카
##통합당
괴롭히
길버트
디스코
방문객
제작비
천안시
트리오
합중국
행정관
##비아누스
##ering
hill
isil
게오르기
found
매니지먼트
##ан
感
蒙
譯
##러기
##사노
끈질
루드
머피
면화
미겔
방전
상시
소신
송이
실격
옥천
유주
음속
찬반
합체
훈구
경비대
느낀다
득점자
르완다
무릅쓰
민주정
베르더
브루노
설계자
슈바르
시설물
에리크
완봉승
칭기즈
클라라
평화상
포항시
피카츄
헤이시
##노동조합
##티아누스
1603
지원하여
웜
##관계
##렁이
##시니
##저씨
##코치
##esc
고즈
구토
군역
도금
래리
미로
밀고
상감
성급
앨리
원담
이권
지세
허무
후두
bmw
고생물
군정청
미망인
샘플링
수록자
수호자
안타깝
준다는
1590
경향신문
샌드위치
인디언스
edward
프로테스탄트
develop
파나티나이코스
##..
客
操
雪
밍
##ato
##ips
경이
고해
광부
금화
길쭉
덕흥
만능
바바
버릇
버크
사성
아말
알렌
원성
총상
표류
프릴
힘써
512
갈라진
개발사
구한다
그로텐
내려왔
더욱더
만네르
시라카
으라고
1786
시민권자
와이오밍
피오렌티나
하이델베르크
休
엷
##슐리
관서
교배
국명
극좌
꾀했
리비
방계
생가
수험
신변
심복
정설
카파
판권
판도
호그
##러시아
##클레오
##프레임
걸그룹
나가토
니케아
수영장
예배당
즉위년
증손자
클레어
태극기
편의점
1816
세그먼트
증가하여
헤르메스
그로텐디크
##르기
##인자
##정랑
##orm
hk
가위
겸했
다기
다해
리아
보답
봉분
수다
시암
심신
오닐
완강
좌완
주공
켈러
lee
명하여
봉사자
스테이
위너스
한국사
항저우
헤이케
icbm
에드먼드
참석하여
하시모토
再
##구라
##궁주
##라쿠
##삼국
##져야
##트인
##cil
nl
간택
군집
궁핍
네로
누설
선왕
슈테
옮길
육사
이륜
재치
젤리
중첩
초명
##티모르
maj
기관사
부딪혀
에르난
전해진
코러스
포브스
할수록
후보생
과테말라
매트릭스
샤를마뉴
세브란스
캐나다인
프라이드
model
peter
아르키메데스
炳
蓋
追
##교동
##국인
##베타
##조각
##cle
ru
내해
땅콩
무적
서상
성호
수족
승마
약학
오목
원어
정순
지온
킬러
탄수
펠레
현안
##체육관
999
lte
본다면
부제학
브람스
울타리
울트라
적십자
훈련소
레퍼토리
반응하여
발견하여
슈퍼리그
옅
펭
##고보
##너리
##바타
##베그
##에로
##에리
##투사
od
og
관공
니콘
미처
발주
심플
역간
예장
오위
유복
유색
이안
콘도
햇볕
행태
##케이드
##쿠스틱
att
고혈압
기념식
능력자
로도스
미요시
반하여
브리트
서인도
아저씨
장시간
커티스
파르티
펜티엄
##ident
dark
우르바노
story
노브고로드
league
아르메니아인
←
庫
깡
뵈
펩
##보수
##참판
##피어
##use
vv
관방
교직
금하
노화
동결
무찔
밀착
백호
베가
보천
사철
상도
스킨
악한
엿보
영내
이부
자모
천공
팀원
파샤
허적
회기
pri
가져야
거북이
관측자
껍데기
니카라
벗어날
부사관
점령지
화물선
에노모토
캔터베리
형성하여
##선수권대회
##단체
##보라
##재료
##ugh
급식
기가
내연
도저
루나
소노
슬픈
여흥
유익
의왕
재적
직영
처남
함포
호메
후금
##바이크
##ures
219
두터운
박지원
보병대
소시지
양자장
영화사
작용소
홋카이
휘발유
대응하여
생물학자
오카자키
플레이트
##누아
##단샤
##멘토
##iff
급하
담화
명지
버림
비장
삼부
시냅
신식
연선
초회
콘월
포구
해달
행차
hiv
iss
ple
매출액
목걸이
밀려나
설득력
신의주
앙카라
외래어
유기물
카트리
커맨드
lond
more
prim
남양주시
니카라과
스탠퍼드
플리머스
호쿠리쿠
보컬리스트
庶
掌
陶
둑
##문왕
##바트
##블린
##사쿠
##현대
##-15
##ecd
##olm
강탈
권했
기행
다뤄
드루
리포
반칙
배럴
성녀
아명
왜적
이숙
정현
조미
질타
추월
충정
카토
하디
회남
##itor
cas
emi
대동강
도에이
리그컵
마쓰이
말버러
밸런스
서로마
송준길
유위법
조소앙
즐거운
1620
1829
call
spir
남북전쟁
몬테네그
샌디에이
포틀랜드
henry
巡
版
眠
##라프
##셔스
##수라
##예트
##코니
##eee
##ris
fu
계모
드로
미첼
슈바
역적
일례
입교
잉카
전치
조짐
출근
펜스
히노
다비트
신해철
어딘가
전환점
카스트
헤로도
1604
1784
블리자드
쓰러뜨리
아시안컵
주민등록
嬪
翊
##글러
##등기
##블릭
##쓰키
동관
라테
마흐
무가
바인
선산
송금
써야
아퀴
외쳤
유약
자장
총합
축약
640
mos
관광업
두만강
문학사
아이팟
윤리학
천궁도
칭한다
페인트
해산물
해져서
1802
ieee
이성질체
보니파시오
##gb
##oy
勞
委
革
##레로
##모음
##지드
##키오
간지
겸손
내수
동두
들였
성유
신예
실물
쓰쿠
양현
여고
이극
일류
전량
중류
참호
팬터
합세
호박
##나지움
##로비치
##보국단
##스타파
##스포츠
##aker
aus
lar
아즈치
유배지
자위대
전임자
1648
1781
1827
bell
쇼트트랙
스테레오
어쿠스틱
파이터스
페니키아
10000
샌디에이고
##11
乾
懷
鉉
렘
샷
##강도
##갱이
##계선
##대조
##사토
##치니
##unt
kv
ls
가메
계양
구어
군무
기라
단테
더미
뒤셀
섹시
외동
유모
이따
잠복
주군
탄탄
태클
터진
패미
후학
##네이터
gab
pra
데포르
마거릿
브리즈
산체스
에치고
총학생
컨벤션
deut
east
과학기술
기초하여
모토로라
컨소시엄
技
登
##마어
##사사
##워키
##유기
##코인
##하워
##ava
##ctv
bj
dx
감형
나팔
높일
랭스
사극
소현
식읍
양제
오자
조밀
커먼
파급
팔로
화이
화질
##바니아
##아파트
##inus
##oney
tar
날카롭
산화물
세포막
완벽히
전교조
진동수
4·19
다카우지
발전하여
스피어스
심리학자
하코다테
feder
익스플로러
second
station
宜
才
楚
過
##부치
##시나
##엑스
##열왕
##-16
##ube
간척
공생
광시
눈길
두통
묵살
문공
민권
민병
세세
소부
손견
신촌
엘람
이신
체구
코우
크래
파피
편수
해법
##anna
low
내려진
대각선
레이크
리서치
마땅히
상나라
세컨드
양나라
최치원
스왈로스
전후하여
정보통신
조선중앙
brown
cross
language
ç
疏
鑑
##보전
##산품
##일점
##임새
##츠카
##ole
계명
구보
넘긴
될지
밀수
백금
번진
봉토
성토
시온
우화
절개
주법
지났
철제
환호
흑자
##박쥐과
##플라이
##해방군
fly
교토부
극소수
리포트
봉수대
소유주
연출가
원거리
이지스
정신병
중생대
출발점
통신망
그레이엄
레즈비언
요시노부
카스트로
固
推
晩
爾
琴
덱
##관사
##들레
##보레
##트린
##acy
##iph
걸스
로쿠
명절
민선
박희
본디
서라
승소
쌓이
양준
원뿔
음수
이튿
정량
좌랑
주방
진구
캔디
키타
##ring
##vent
410
cos
관중석
노이만
느냐는
떠올리
목포시
미나토
베로나
슬럼프
아니한
옥개석
주교좌
카이저
한명회
2600
민주통합당
尼
止
習
##걸스
##동지
##령관
##마로
##슈티
##야식
##카노
##테러
괴테
남측
매드
분가
석등
스베
신승
실장
양부
중문
토이
통정
포칼
##케이스
끔찍한
내몽골
마운드
불가사
설리번
소수점
슈퍼컵
아칸소
아파치
알론소
에메랄
출장소
파주시
파트리
1826
moun
김나지움
예조판서
올랭피크
카롤링거
介
浮
紙
##치노
##흥사
rf
간헐
갑상
구식
군현
난폭
노숙
머큐
바하
비명
셀러
에린
엣지
원화
윤봉
지카
타밀
하대
학도
홍주
회중
후각
##atus
mlb
동식물
오미야
피어스
해럴드
확고히
isbn
마라도나
서귀포시
인테리어
쿠빌라이
健
奴
젓
콥
##곡면
##더드
##럭스
##츠만
##턴트
고비
곤도
관립
구국
김세
단추
뒤편
랭커
런칭
맞먹
명망
볼턴
수탈
암초
양기
엡실
용모
유파
일등
일축
지남
직역
총탄
태후
특진
푸앵
현자
##가사키
##네이션
##elle
공손찬
블러드
사바나
시행령
신간회
에이커
이데아
자연히
축구부
##라이언스
##브라더스
1413
bank
poly
비스콘티
히타이트
album
##ey
뤄
##디트
##페리
강물
교두
근연
꾸민
맹자
메우
묵인
백마
변명
보우
사족
생육
수찬
승전
시급
시련
신돈
악어
키케
할로
nic
rot
기본법
기술력
남우주
다이나
맞아들
매니아
붙인다
조계종
클랜시
화성시
황갈색
1660
foot
브리트니
신비주의
엑스트라
침공하여
아이젠하워
姬
序
磁
組
露
##국당
##나불
##미타
##사람
##에몬
##찬성
ea
뇌졸
대간
맛보
발차
사돈
수월
신파
영일
임업
정장
진중
진통
타키
현수
훌린
##말라야
son
보이저
이튿날
조제프
중견수
1649
대저기압
바티스타
호메로스
뒤셀도르프
london
##zi
何
샨
싯
##속도
##와르
##테루
##ift
##ror
광원
마수
말살
머니
멘토
명료
본따
블러
시왕
신안
양평
어스
에워
월등
의열
존호
주청
차우
철원
터너
##스테인
239
dsp
mur
넘어섰
대마도
로스트
방문자
벌인다
오가사
원작자
의화단
청계천
탈바꿈
통도사
필살기
##중추부사
##타도레스
##텐베르크
last
게르만족
초전도체
프로토타입
경성제국대학
刊
旗
밈
##오버
##추진
##ful
계비
김응
노렸
도맡
듀크
머스
바일
보임
사파
삼가
애용
연작
왕도
울림
유랑
이일
처참
폐교
해면
효능
bor
남북한
도저히
로맨틱
리저브
생산력
생산물
출생지
카네기
플레어
oecd
vide
다이라노
코민테른
포츠머스
royal
불러일으키
entertain
峴
貢
贈
얄
##랭크
##ges
##mat
나침
낯선
노년
로사
록맨
뭉치
부트
속출
시시
아랑
어학
오성
유례
육십
은닉
전법
접경
정열
죄목
피언
##물리학
nuc
다이너
수녀원
얼스터
여러개
예카테
유성구
전반전
휴게소
히데키
##스트리아
1609
1822
다운타운
마사무네
andre
몬테네그로
korean
奏
構
멕
##란도
##림동
##영향
##·15
기득
무속
미쳐
번안
살린
순치
아핀
오행
우타
족장
진폭
집게
초고
침전
팀장
학식
##리스타
##샤오핑
김원봉
뱅크스
시냅스
쓰가루
우수상
윤원형
이따금
조로아
헥타르
cour
jtbc
대통령령
덩샤오핑
스파이더
알베르토
프린세스
히말라야
micro
river
센타우루스
##공립보통학교
리베르타도레스
##24
κ
瞋
虛
述
##구역
##더릭
##처리
개표
놀란
당간
대자
도큐
매클
무오
사시
손잡
씨방
왜소
외직
징후
책상
총신
크립
택했
트롤
##이스터
##플레잉
got
감사원
강경파
게임단
계엄령
끌어내
다자이
생태학
소문자
속임수
안드레
운영자
제이크
홋스퍼
후베이
1582
1811
나미비아
랜드마크
미쓰나리
아나스타
아랫부분
아이튠즈
아틀라스
네브래스카
트리케라톱스
##곡절
##룡사
##bre
금주
기전
노량
망라
살균
아자
양이
어벤
우뚝
우여
원판
이요
인장
차로
최순
케니
크누
템포
통학
합천
항변
횃불
rpg
강화군
김홍집
실력자
연기력
유력자
체로키
1770
다이오드
로테이션
롤플레잉
지나간다
포세이돈
毅
迦
鎬
솅
잼
##럽트
##면서
##바니
##혈증
낙인
루니
망하
밤중
벙커
사담
성하
세스
아역
양사
유미
이더
저속
총감
친근
후량
##타이드
##line
exp
교직원
농어촌
사우디
사이고
알타이
양주군
초음파
평양성
프리츠
플래그
side
로베르트
모른다는
은행나무
호나우두
##베스피에르
earth
아우구스티누스
γ
坡
失
維
씹
##득이
##리시
##박사
##실업
##코이
개회
구가
낙원
내선
노팅
마조
모국
분대
불운
붓다
아노
애기
위세
육우
의탁
인대
작화
저가
정태
종별
중창
추석
칸타
캡슐
탱화
피했
해탈
흘려
520
sig
공로자
눈동자
몰려들
세미놀
스타즈
아즈마
음악회
터키어
파푸아
퍼펙트
합쳐진
히로인
히메지
arts
vict
가와카미
에메랄드
중앙정보
페르미온
피에트로
땐
##개명
##거슨
##리치
##모트
감영
국채
그걸
그분
금품
띈다
약어
요네
인제
임박
임오
전초
조운
증여
천리
틈새
##심리학
##oria
gal
rfc
광우병
리차드
불어넣
신도비
에리트
에인절
이와키
채플린
툴루즈
페라라
read
못한다는
사카모토
econom
亞
甘
秉
編
뺨
뻘
##섬유
ly
격노
내게
덩치
데라
등반
로움
반탁
벚꽃
소감
싱크
쌓인
이학
투척
폴로
픽션
호러
##베르그
228
mix
개정판
거문고
광주시
무너진
미시마
벌어져
올린다
이교도
장본인
cctv
core
우여곡절
academ
堅
設
긁
썸
##경영
##기록
##로움
##오른
##오키
##트만
ال
귀가
기절
나리
랜디
멜로
법상
양각
오존
제법
카멜
커리
##트리아
ham
근거리
다녀온
조사국
주둔지
주제곡
탐험대
표시기
프리메
되돌아왔
슬라이더
인터럽트
베이스타스
盤
県
落
톡
##빌딩
##숭아
##터슨
##col
##ets
fn
구와
까치
남포
리시
매운
문수
박승
비르
비사
빼내
서드
솔트
신오
외출
이연
인왕
특파
풀럼
##가협회
##노비치
##다코타
##ters
353
ltd
경순왕
계산기
그리드
도요타
로런스
버나드
사업장
스피너
인류학
접미사
진주성
추진력
1519
1823
국회의장
다이렉트
블레이드
서바이벌
games
prince
옥타비아누스
function
△
深
##년도
##록색
##리프
##뮬러
##비니
##산부
##스어
##판윤
##화재
강론
개신
구심
구워
근해
동복
만리
불우
쇄신
순화
지워
쫓기
##스탕스
blu
법학과
양산시
참가국
출신지
크리켓
풀타임
chem
갈라진다
브루나이
수마트라
슬라이드
알려준다
전자기파
창씨개명
##ji
##pc
施
警
##건스
##보병
##업소
##은편
##지야
##win
각서
각하
간디
다네
리마
만국
말엽
미코
보은
불허
상과
야후
어음
웨어
정할
제례
칼날
키트
패소
학무
활력
후주
##드라마
##티스트
공학자
기업체
끝내기
람보르
수호신
역무원
올빼미
움직였
인도인
저스틴
주자학
퍼거슨
하룻밤
1607
1774
wall
동티모르
로베스피에르
##pd
##ар
в
п
磨
꽉
륜
##권법
##댓값
##딩턴
##하타
##ias
##tic
1⁄
ze
경쾌
귀의
난해
돼야
번치
벨리
불륜
비대
비만
심도
애착
야노
에타
철교
카불
콤보
티탄
편이
say
가르친
공작원
남북국
목회자
밀워키
바레인
발상지
보상금
빈번히
생제르
스타인
시간표
신인상
연장선
오징어
온전히
조르주
##템베르크
##ating
배치하여
페가수스
위안스카이
##21
##35
忍
獄
紋
##메탈
##테라
##티엔
##혈병
담론
명기
목축
수미
수세
시퀀
안되
우랄
일약
정난
정운
탈선
편평
한방
##ates
255
401
box
rpm
sac
거쳐야
남대문
바나흐
블레어
수행자
아우디
온게임
칼리파
통계학
트래픽
휴양지
1591
1618
1637
기요모리
데뷔하여
보르네오
비서실장
영지주의
테살로니
council
崎
揚
渡
##도노
##버라
##빌라
##조정
##카시
##bsd
##ied
##ito
공위
근신
꺼려
뇌터
더듬
만지
망상
맞선
베릴
분실
스탭
스털
연접
영세
예보
온돌
원가
저희
홍대
희소
our
아닐까
유니온
1614
스트라스
점령하여
폭스바겐
캔자스시티
history
θ
置
갸
넌
##지상
##착륙
##효소
hi
ku
vr
골목
김한
단성
라흐
린다
북두
색조
승화
심층
아코
육류
적기
출몰
커스
팔레
하랄
혼재
훔치
##과대학
460
cnn
gui
gun
경작지
과도기
국경선
기갑군
산기슭
억지로
역전승
전문의
조그마
청교도
합격자
1570
비지니스
시킨다고
아뢰야식
제공하여
카테고리
파이어폭스
프리메라리
대한축구협회
##zo
£
λ
壁
##돈녕
##무사
##문자
##뿔소
##슈테
##실라
##춘기
##치쿠
##탐정
##팔로
##피드
고졸
공보
매핑
몰라
배송
선량
악용
위급
임성
조산
표수
헬멧
##그래피
##라스노
249
325
aud
swe
구한말
기득권
농경지
미술가
시작점
안동시
이방원
줄임말
아사쿠라
카를로만
코린토스
탈출하여
플러그인
right
자유주의자
##28
料
階
딩
##드루
##라나
##위크
##퇴근
##den
uh
각역
간언
근절
김호
낸시
농노
미흡
부마
속현
에탄
우니
이계
재빠
전군
정희
컬링
클론
페미
풍조
해볼
회자
##축구단
540
간담회
강릉시
고쿠라
맘루크
부딪히
붙여서
성북구
아비뇽
정차역
총사령
테베스
편집기
1785
뉴사우스
시모노세키
summer
##gu
杜
##라토
##소총
##양이
##위군
##태영
##ett
ja
개요
공역
구시
금방
내밀
누릴
들판
버금
아픈
암벽
양전
엄중
역법
유즈
육로
의붓
장공
장방
젠더
지망
지터
키미
편광
호라
힉스
##브리튼
##슬라우
bob
강아지
관공서
나침반
남해안
불안감
비자금
심포니
아르카
에우리
오쿠보
제니퍼
조회수
청량리
키르케
호흡기
anim
키르기스
프레드릭
페르세우스
문화체육관광부
戱
쇤
##내면
##든지
##머신
##물산
##수군
##시즌
##예보
##크트
##lor
건반
공론
근소
김순
동족
말갈
매너
미쿠
박은
범퍼
병상
양극
육영
장구
접할
퀴즈
핸들
흑연
##현왕후
rap
간행물
구사론
생성물
수니파
옆구리
하모니
1455
1750
남아시아
소현세자
정착하여
중앙은행
지장보살
펼쳐진다
##예수교장로회
우크라이나인
컨페더레이션스컵
entertainment
##48
戸
뚱
##각시
##산역
##수도
##왜성
##-21
mx
가출
깔려
나눗
남침
노려
단락
당군
도매
돌궐
만수
명창
번가
북문
에프
염료
원세
이매
제석
주치
지검
질책
징발
퇴학
티베
팔각
한결
해류
후륜
##chen
sin
계획안
김해시
마산시
아르타
직할시
체르노
판의금
1651
fall
구스타브
동대문구
사회과학
아유타야
패러데이
패럴림픽
오가사와라
嗣
振
##달리
##디니
##룰루
##분석
##합전
##bus
fx
노령
대모
레나
리브
리카
박혀
삼남
선화
심근
오퍼
올레
윤종
음소
인내
일신
자급
전생
진원
친필
쿠릴
##face
ide
kim
tcp
가이아
강연회
곁들여
김택용
목적물
방어전
보여줄
보이즈
브리핑
수뇌부
쌍방울
울주군
쟈니즈
집대성
킵차크
트랜잭
프로페
1450
1506
경제학과
끌어들여
사이클론
원더러스
진학하여
##hi
耶
뚝
##무드
##실히
##입상
##키즈
갈비
공훈
근심
도가
레프
매튜
분장
불선
선의
승무
우부
육안
응집
코팅
티모
화사
cho
괴로워
배심원
부스터
스털링
악영향
요시노
이사금
충성심
카다피
1605
mind
국립공원
포메이션
##ission
press
water
자유한국당
standard
##구멍
##네즈
##뜨릴
##상시
##연수
##요스
##파라
개천
굴곡
나돌
날조
냉장
다승
덴버
동고
만두
무녀
방직
병세
살포
성시
성황
소토
아탈
안수
육신
장보
정대
조어
처자
코덱
코마
태안
평온
회송
##wood
mba
생물체
셰필드
쓰나미
엘리엇
푸른색
홍건적
황태후
1536
1601
base
리치먼드
마르코스
아니한다
##uction
만네르헤임
베른하르트
america
ε
坊
##강원
##공회
##어쓰
##어파
##ize
aj
tt
검소
기뢰
날로
델리
롬멜
망설
병참
사미
석호
셀룰
실드
약수
양공
양명
와타
유승
응력
잎겨
조중
진양
차려
칼레
통설
헬로
홍준
##마리아
##즐랜드
nad
가시마
대해선
돌아서
동역학
리그전
무한히
서북부
소행성
애호가
에디터
저술가
중앙당
차베스
팩토리
회사명
1701
cast
아이러니
알레르기
야마시타
챔피언쉽
##ington
壤
差
##농민
##앙스
##코로
##ots
기만
뉴햄
다각
대용
도운
레기
무정
미에
변위
비춰
섭동
소급
소추
야유
오펜
왼발
인슐
임영
자퇴
창극
평산
풍화
황조
힘러
##형무소
가져와
게임즈
바스티
아틀레
앨버타
옥타브
의금부
자치도
페이퍼
feat
town
생제르맹
이조참판
코미디언
public
경부고속도로
프라이부르크
##ki
墨
殺
泳
鼓
##다노
##메인
##산염
##천년
fp
kd
궁금
나포
눈금
롤리
모치
부좌
수기
순방
악몽
애버
얼터
중경
진척
치솟
피폐
환각
##보호법
216
cup
dog
ice
느냐고
다람쥐
런타임
버몬트
부산시
싫어했
자주포
전쟁터
조교수
컨셉트
프리즘
##르크세스
1627
phys
선덜랜드
시킨다면
education
告
潤
熊
鼎
##그린
##길동
##링스
##소프
##하스
가만
가파
교각
군복
금정
낙관
다메
대작
레몽
매겨
미뤄
박명
변태
성층
솅겐
여립
영창
완패
이백
장항
접대
제복
진핵
최승
카츠
큼직
해낸
218
공격자
로테르
멧돼지
명명법
무정부
밑바닥
발사대
오사무
정약용
탈레반
폭발물
하행선
환경부
heav
태어난다
퍼레이드
treat
민코프스키
岐
##롭스
##rom
강북
노다
당진
도수
돌풍
루지
모잠
물량
세페
안후
완산
외양
용법
조나
채팅
탈북
탈영
편도
해충
행각
##기념관
##사이저
##ents
305
gam
노이즈
다거나
달팽이
돗토리
바르톨
부조리
살펴볼
집합체
짝사랑
테이크
파이썬
플랜트
##버지니아
##오세티야
##ality
1398
four
math
뉴햄프셔
사로잡혀
언더우드
요한네스
충돌하여
const
fried
media
건국대학교
워크래프트
##45
於
速
鬼
퓌
##기관
##기사
##댄스
##시르
##어드
##ple
ry
강민
검교
극성
대첩
만민
문호
뭉쳐
백관
병약
엔젤
완장
우메
우방
이국
지네
포천
##미사일
##스테드
##클레이
nas
관리인
릴리즈
메이슨
시바타
웰링턴
윔블던
음식물
정한다
태양광
텅스텐
테레사
통행료
포병대
1580
happ
list
기타큐슈
다카사키
도와준다
사회학자
콜론타이
푸앵카레
##르템베르크
count
peace
네덜란드인
τ
勒
當
耳
輝
鹿
펫
##광선
##동쪽
##스만
##임관
##don
김효
납북
넘쳐
노역
디디
로젠
방형
백범
북청
비웃
빌럼
삼사
성안
세실
알린
예기
예민
유유
익혔
장력
정구
지기
판다
##스타일
##시오스
obs
거주민
경영난
김종서
마운틴
매장량
메소드
미즈노
선비족
압둘라
에일리
인터랙
지난다
참여관
##anced
1567
boys
갈라타사
연구하여
전체주의
탑재하여
팔작지붕
##ification
兪
干
爭
豫
錢
팍
##루루
##리움
##법사
##셉트
##oud
계위
김만
끝낸
미혼
바쁜
브룩
뼈대
석실
셜록
속초
신드
신채
얽힌
옥고
윤석
임수
재계
진법
창법
청도
펭귄
한왕
합하
##어도어
##less
227
501
civ
hon
광역시
드러낸
마사코
버밍엄
변증법
연수원
유공자
인버터
참으로
특공대
한국판
pier
ther
노동자당
레이아웃
번역하여
파르티잔
block
exper
method
##90
##wh
##ий
刀
歷
病
規
##모치
##민관
##카사
##포이
##bol
##ona
##ych
가케
계림
고어
기쁘
나탈
난부
내뿜
마샬
만인
무작
벨로
봐도
생후
세인
수발
우한
재촉
재키
주미
주안
##성전문
213
226
dmb
lat
php
ven
귀여운
그리워
나바라
따라야
밝힌다
법상종
부끄러
에나쓰
옹정제
의정서
일일이
조선족
주고쿠
죽인다
저널리즘
퀸즐랜드
탄수화물
point
saint
헤르베르트
유스티니아누스
癡
##가라
##구사
##록스
##망이
##문원
##첼리
##투안
그게
기꺼
김덕
내사
누출
더운
딜런
로어
받쳐
병장
부원
비탈
속보
신격
업종
엥겔
은평
이괄
중군
천부
쿠마
키즈
푸드
atm
liv
mun
교통량
도플러
마린스
마우리
보급품
사령탑
살인자
식스토
아이비
양산박
이로쿼
이즈모
인스트
일단락
카타리
캐스터
홀딩스
##네트워크
말라리아
보성전문
아킬레우스
幸
鐘
##무기
##범죄
##본기
##촌리
##day
거둘
궁수
낙타
발권
버블
벌일
샤르
서훈
암자
애너
천호
칙서
페터
폰트
희종
##글라트
##레스테
##샘프턴
##체육회
##티아스
가창력
교두보
몽골족
보살상
사춘기
살라딘
스펜서
시발점
이시다
지원금
천태종
친선전
케로로
1650
1758
1772
스웨덴어
에이로쿠
에인절스
에픽하이
maria
single
남아프리카공화국
##17
##gl
坂
存
灣
背
찻
츄
##에나
단가
마더
면치
미케
밀정
배차
샬럿
성찰
아센
엉뚱
용납
음파
의관
일절
장막
조모
참찬
청두
청장
코딩
코크
타사
탐라
판독
환생
560
광합성
달라질
동반자
디지몬
반다이
부드러
에라스
유키오
유타카
자연사
적혈구
정하여
조그만
콜로니
##stein
##ville
1018
1782
9000
뉴사우스웨
레오나르도
##cp
낀
##대신
##두어
##레마
##릉군
##발전
##장어
##터우
##핸드
az
검술
광기
굽히
매김
보국
보단
보현
순국
에니
에베
음각
이비
인턴
정연
철권
철근
팀명
폭설
홍가
##볼루션
##스토르
680
pot
ufo
나아갔
눈부신
다른데
맞춤법
밀려났
박원순
부여군
안데르
애국심
자부심
정의당
조에쓰
칼리프
터뜨렸
투수진
프리랜
확장자
삼성그룹
제국대학
아케메네스
friend
区
惑
稅
芳
葬
퀵
##베어
##책점
##체인
##탄병
##트어
##oma
광서
국권
금발
김익
남진
답습
돌핀
무브
미끄
살롱
수륙
오코
응모
재귀
즉석
체리
친다
풍미
해골
현세
회랑
##평장사
##icle
275
구조대
노히트
뒷다리
명목상
민특위
복숭아
사마소
수시로
시어터
식료품
아리안
알레포
은밀히
인슐린
재판장
정의역
철십자
포터블
황금기
##전보국단
1560
fant
lead
zone
디아루가
롯데월드
브래들리
브리즈번
세종실록
우승하여
크로노스
blood
덕흥대원군
레지스탕스
인민해방군
##wn
街
評
핍
##누르
##마키
##뭉치
##성회
##요크
##이인
##자연
##준비
##직선
##omb
결산
계면
고귀
고부
드릴
만경
모계
베텔
사공
신디
전업
조던
카보
포경
허셜
협공
혼수
##차일드
##edia
530
mys
가오슝
교류전
구로다
도리아
따라잡
리뉴얼
웨이브
잠비아
착륙선
펼쳐졌
하루카
훈련장
##스케이팅
러더퍼드
스탠더드
스파이크
에스메랄
파우스트
포레스트
한국은행
해수욕장
dance
얼라이언스
잎겨드랑이
勇
宿
弓
賓
##경사
##쿠지
##패닉
갈레
고른
난바
넥슨
녹지
늦추
매점
분분
상피
시르
시연
실학
아구
안구
연례
연명
외전
음서
이과
인목
짱구
토의
하한
##들랜드
##파트라
fut
게임스
궁내부
기계어
다카시
닭고기
되돌리
명탐정
사나다
상징물
아무르
인민당
조선임
지휘봉
진다는
출퇴근
코나미
프렌치
힐러리
1615
poem
ring
블루레이
트로이아
girls
남우주연상
martin
##스텝
##예스
##웅렬
##oft
lb
공언
국물
그람
노린
담양
망토
무학
방편
사외
소경
순응
지토
퀸즈
테일
##뮤지스
los
네모난
돌아보
미켈란
소방관
에리히
올라간
이기붕
저고리
처한다
1613
1720
1759
6·25
슈바르츠
시구르드
안드레이
이집트인
페미니즘
anton
video
나인뮤지스
민주자유당
프레데리크
홀로코스트
##_5
墳
引
段
究
딤
##모프
##애자
##티즈
간절
고바
끊기
네빌
두목
딸기
랩퍼
막론
만한
발부
본점
부계
붕당
상아
셔터
스메
시일
요일
용매
위화
이근
천성
추수
토막
파키
팽팽
할복
호놀
호종
##노쿠니
##스코프
##클라베
##iano
404
gsl
sla
김보름
뉴기니
다케시
릴리스
마젤란
모자라
발렌티
신경망
에치젠
이상재
커진다
호남선
##미니스트
1619
1762
리얼리티
수행하여
스나이퍼
시어도어
에마누엘
유대주의
인현왕후
프라이스
데포르티보
펜실베니아
弟
撰
齡
##병합
##조프
##치산
##ios
ld
간극
갇힌
굴뚝
김안
단풍
말투
메틸
멸시
못함
문맹
미용
박세
삼장
소국
수론
숙고
스냅
습작
윤상
잠들
좌초
탄창
풍선
히가
히토
##lass
234
교차점
긴장감
다방면
베르너
사업비
상행선
새천년
스커트
양평군
윈스턴
지멘스
카스텔
휘말려
##아비달마
1740
어드밴스
참전하여
force
dragon
클레오파트라
董
잣
##로크
##마에
nx
xy
노먼
닫혀
드롭
번사
샤먼
석축
유괴
이왕
인화
장부
정묘
찬송
터져
특질
포즈
하녀
##가리오
##본주의
##아가라
##파고스
323
관람객
기꺼이
나이키
뒷부분
모듈러
부원군
야마노
정명훈
캐스트
트레인
페르마
홍준표
1492
1779
bang
main
orig
잃어버리
프로그레
병마절도사
히스파니아
與
릿
##나물
##벤스
##유도
##주기
##천문
##풍군
##-17
##ira
ax
ui
간쑤
경직
규소
남코
납득
레미
무진
문답
삼엽
양모
어간
영재
온양
옷감
용융
윈저
응축
장이
제청
주례
진왕
호우
##콘서트
##lish
도호부
때려냈
아스트
오랜만
으려면
의자왕
자본금
전시실
지브롤
취임식
코무네
플루트
....
고이즈미
나가오카
정리하여
지드래곤
콘클라베
프리메라
행해진다
히로히토
kaist
나이아가라
평균자책점
라틴아메리카
享
伽
祚
홑
##같이
##라티
##스처
##외교
##전시
##족론
##지선
각막
경국
농상
닛코
다졌
메트
무령
물음
발데
변칙
부안
서동
수혜
야자
약소
엠마
연체
외화
우사
원생
이간
임차
잔재
적벽
전영
증서
채웠
펄스
플뢰
cin
고문서
달라졌
대마초
로터리
상공업
에반스
전리품
지방산
책임감
##메니스탄
jtwc
next
wolf
맥도날드
세바스티
테오도시
갈라타사라이
대승아비달마
真
米
紹
##남부
##대표
##샤르
##언론
##타일
##cht
가압
공저
교세
대시
도정
독학
뒤떨
럭키
린치
마고
보디
봉투
브론
사경
쉬워
스무
염원
음정
입힌
전편
정파
중년
중사
찍혀
채식
커크
퇴거
한경
한적
##라이너
##르트르
##ater
880
abs
경시청
경의선
괴로움
목판본
발명가
쓰러진
윤웅렬
점성학
청취자
축전기
터뜨리
1469
only
야마자키
흐루쇼프
흡수하여
beaut
smith
멀티플레이
멕시코시티
미켈란젤로
트랜스포머
투르크메니스탄
函
舜
켤
##누키
##caa
hm
개사
걸림
고드
곧장
골대
공범
군입
굳건
그립
극소
김좌
나눔
라몬
로랑
봉급
분권
사복
셀프
어댑
에로
이응
조위
차리
테드
폐비
해경
황국
##머니즘
##모비치
##스러운
##진보당
777
갈루아
라벤나
배포판
보험료
오른팔
은신처
인덱스
장준하
칼데라
##베이거스
1568
dead
우려하여
death
order
......
하우스도르프
徽
燮
##도호
##소자
##이전
##장구
##장조
##지검
##촌동
##off
교상
다산
몰린
박철
부윤
선적
안달
오거
장영
저승
전소
종성
찬가
채찍
치타
태고
페트
화형
휘그
히치
##글리시
##록대부
##아지에
##정보원
860
asc
cop
dyn
lab
suv
발자국
보일러
수송선
신채호
안보리
오세훈
오타쿠
쫓겨난
찾아냈
키루스
현무암
히파르
1521
1617
full
국가주의
되돌아가
디바이스
보인다고
사관학교
이사벨라
확장하여
##종합운동장
three
라부아지에
에뮬레이터
sports
조선임전보국단
峯
症
移
謝
##나트
##마땅
##미래
##복야
##사부
##헤르
경구
공제
군소
당쟁
로잔
명곡
무주
벤자
속속
신심
실외
워프
저상
정평
주스
준거
초구
타진
함축
환공
후스
##게우스
253
fat
gov
그린다
나눗셈
동인지
라이스
미야코
성동구
아라카
엘레오
오다큐
의정원
프리드
한해서
1572
더글라스
모니터링
부족하여
컴포넌트
히스패닉
화이트삭스
health
##29
秘
際
##기리
##다우
##다케
##박해
##지구
dt
가늠
농악
뒤섞
뒤쫓
라카
미디
배교
배합
부쿠
수모
아슈
앗딘
영공
장유
장충
적립
전상
중주
중턱
진의
패닉
페데
혜종
cer
ill
루프트
못마땅
믹스테
불러오
실업자
아바타
애스턴
애플렉
오야마
작품상
정치범
종교인
줄리엣
출신자
카세트
코스닥
테트라
휘트니
##프레이즈
니코니코
로트링겐
분석하여
불러들였
빠져나와
서아시아
성장하여
쇼케이스
와이파이
자이언트
두려워하여
시즈오카현
페미니스트
##ological
伏
##메데
##ury
td
귀도
급감
꾸란
네온
눈썹
무례
무방
문리
변절
수려
슬리
연면
왕망
일격
장도
접견
진무
참봉
치를
카니
판시
회동
iec
mah
som
tvn
골프장
교육인
다득점
동남아
보호령
불가침
사사키
오두막
임팩트
조건부
조사단
차라리
테무르
틀림없
##ender
card
아이패드
이스마일
지브롤터
카슈미르
키르케고르
라스베이거스
corporation
##gi
株
讀
送
##급수
##더러
##라야
##베레
##상부
##와카
##isa
고영
구르
나설
노장
막히
모독
박현
반월
보루
뽑혀
스칼
싸여
아민
악수
위선
유람
인양
조시
증득
항법
해구
히코
히포
##라노스
581
bac
pag
viv
괴롭힘
구릉지
김장생
늘어서
목욕탕
반대자
수사관
아세틸
연나라
유명인
제미니
찬드라
bern
갑오개혁
모리오카
알레산드
제정하여
주도하여
크리스틴
level
라디에이터
프로그레시브
edition
computer
##ин
̊
冬
壬
步
碩
視
쉰
웁
##키노
구파
굳혔
금연
박준
벤제
산인
성탄
소르
수생
신년
실례
아달
양재
어퍼
연전
오백
육조
익룡
일로
전분
조망
창제
출옥
코칭
한영
화단
회개
##니소스
##orum
980
ngo
pci
scr
고구마
공격기
깨어나
남학생
레너드
성삼문
시크릿
아가미
온건파
인민회
지하수
체사레
파도바
펄기아
하이데
deep
나뭇가지
두려워한
마르티노
엠카운트
導
浪
쭉
##비행
##커녕
강착
고환
군신
글래
남명
다쿠
로디
만행
박주
방진
변주
변할
생쥐
실링
어귀
엄호
울창
적격
적시
절멸
조속
테너
품위
하진
한대
403
510
uae
넘어선
모셔져
베르트
분계선
붙잡혔
샐러드
스티커
아쉬움
에어백
에탄올
완전열
운전대
##실바니아
flow
도쿠시마
마련하여
코르도바
프리큐어
##플레이오프
##iction
갈라파고스
double
electron
慢
똥
팥
폄
##드려
##뚜기
##보그
##불명
##bon
가례
경당
고루
낭인
대축
민생
배격
부차
비겼
사문
산청
서얼
얽매
연개
옵티
육계
질주
천민
청혼
토시
풍력
풍성
해답
##진흥원
265
asp
ing
mak
개혁안
공모전
구덩이
끌려갔
단번에
데메트
드리블
멤피스
바이스
버틀러
사이키
엠블럼
운전석
쿠르트
크롬웰
회장직
karl
ncaa
글로브상
스토리지
인정하여
획득하여
color
queen
캐치프레이즈
국립중앙박물관
새정치민주연합
information
##ao
卓
活
般
配
##렐리
##사포
##왕릉
##좌랑
##캠프
##car
객사
고심
골득
관작
구룡
내야
다했
단죄
등애
법대
서군
성욕
수고
스톨
신수
앵글
야산
원안
원예
이게
임지
장석
전령
제제
차녀
카잔
쾌거
##니코스
##서비스
007
ess
sav
tbc
고려인
내보냈
다라는
보이콧
부득이
수사학
엔리케
은하수
이니셜
이석기
정상부
중원소
지리지
파이브
파이퍼
1504
1573
1760
꼭두각시
드래건스
밀레니엄
헐리우드
##여우원숭이
times
브리타니아
states
м
傅
랙
쵸
##모아
##미코
##언군
갖은
고우
광구
김혜
단언
라바
라지
로보
버거
산동
상비
성터
소변
소조
아보
악행
양안
에런
입궁
종회
중학
지낼
지회
체형
초급
페네
평영
피노
화차
##너티브
##평의회
##풀로스
237
610
gpl
itv
mom
ufc
vvv
관습법
김연아
다라고
머큐리
볼츠만
순천시
슈바벤
싸운다
안양시
외손자
우참찬
장기하
퇴적물
파스타
헤일로
##onder
1612
jump
roll
니가타현
드래곤볼
아시아나
어니스트
이노우에
인도주의
입각하여
스테인리스
자바스크립트
트란실바니아
候
檀
눕
##막염
##부족
##울프
##유정
##저민
##쿠프
##티넨
##홈런
##als
ky
ye
괴인
권영
넓적
네발
로라
매상
베트
성금
성추
속칭
수꽃
수납
아게
아목
양광
엔비
연필
용두
워즈
윤증
음경
의당
출고
츠나
카로
푸이
흐른
241
가하여
경호원
공백기
구속력
대지진
라이터
레프트
매달려
부산물
비스듬
수없이
아카드
양성소
에드윈
오랑캐
이세민
정보국
지중추
춘추관
취하여
특산물
페레스
하코네
##토리우스
1589
1728
무한도전
크리스트
##지방검찰청
히파르코스
б
疑
##광장
##날리
##내기
##마당
##비르
##res
갇히
강계
고윳
관사
관전
노심
녹훈
단명
당면
미트
법치
산발
시전
쌍극
안젤
앞섰
오니
은색
장의
전매
진하
철새
초인
친목
친박
카마
패드
평시
합해
회령
후송
후크
##리스탄
262
263
sup
개혁가
마오리
복사본
생활비
앙코르
앤서니
우익수
자라나
자연법
중시조
체스터
합천군
헤이룽
휘말리
1755
mont
sand
wave
부임하여
야마나시
에이브러
파피루스
황소자리
테오도시우스
software
##ua
##ür
吾
熱
賊
##리자
##바고
##추얼
##티늄
가용
과대
명품
분말
소질
에조
에토
엘튼
연비
저마
전입
체액
터전
핀치
행세
##하이드
229
ddr
lig
군자금
베르디
사이코
서산시
세레스
심소법
위해선
인텔리
자주색
주동자
1630
1683
asia
face
film
개인리그
덧붙여서
도미니코
체결하여
angel
얼터너티브
헤로도토스
person
##ij
庚
좡
##무로
##앤비
##제곱
기시
기입
남도
노자
능히
다낭
마포
미그
박순
본산
소드
실레
아방
아악
웅변
작풍
적국
전능
정광
정이
충절
친위
컬럼
콕스
탈주
포물
포팅
표고
풍수
피델
피라
학내
한역
##다이스
##레인지
구미시
근위대
도함수
매표기
밀리언
벤저민
소유스
애프터
월리스
유난히
정수환
조언자
중력장
중립국
중심가
충격파
코발트
콩쿠르
협력자
1602
1629
1765
kill
근본주의
기독교도
대영제국
마스터스
마쓰야마
미드웨이
스테이트
습격하여
아이다호
nucle
princip
н
也
午
奈
專
決
率
鳴
멩
묀
##계영
##니니
##멜로
##베쓰
##셀라
##쥐과
##ska
cw
공증
근년
기내
낙성
난소
니조
레게
모식
배추
백상
서하
석성
석영
성신
세관
소공
쇄국
안남
양복
연골
완충
유황
차드
차륜
찬미
찰나
촉탁
토드
피선
형평
휴지
##젤로스
bgm
lam
강우량
게시물
고니시
구매자
나선다
리소스
백혈병
벤자민
서부터
스타드
신조어
은언군
응원가
이스턴
##살바도르
##ities
1545
1643
1674
달마티아
에두아르
오리온스
자카르타
침입하여
하비에르
##글라트바흐
남오세티야
우쓰노미야
금메달리스트
唱
콴
퀼
##게니
##노조
##막이
##무시
##복스
##쉬르
##유지
##일장
##피탈
##호그
##arm
##iti
##ote
eg
oz
감격
견뎌
도일
미아
벌리
법황
보주
분전
쇄도
승탑
알림
양질
여공
완승
우동
인어
일까
주동
중진
증보
집요
한두
호시
화전
##문화사
##이스트
##타이어
##amin
224
dia
거느린
따돌림
못지않
브레인
삼엽충
수정안
일대기
정복자
제곱근
좌익수
지표면
커스텀
##고등법원
대표하여
루도비코
모잠비크
뱀파이어
부사령관
즉위하여
콘스탄틴
조로아스터
차이콥스키
캐롤라이나
준플레이오프
development
唯
篇
젬
##대강
##분투
##선언
강기
고뇌
고질
닥치
대례
덴무
두른
마름
묀헨
문왕
베라
본기
봉군
분모
세베
소품
신춘
압승
야훼
오레
요트
원환
으신
응고
이음
창사
칩셋
커비
클락
퇴단
특검
퓨전
효시
alt
gro
가와치
가파른
구락부
무안군
참석자
테슬라
훈련기
1456
1585
wild
아디다스
아프로디
진격하여
크레이그
클라우스
프레슬리
##인민위원회
common
johann
spirit
##85
俱
庄
귤
욱
##경원
##러블
##런드
##시어
##신기
##실트
##후쿠
kf
격납
고명
난류
넉넉
만력
바친
배지
부우
비운
석굴
센스
소제
속옷
아헨
위서
유임
트와
펄서
펴낸
편대
##경제학
##원자력
##ines
dol
fox
psv
기단부
닉네임
더해졌
라이플
벤제마
빈센트
사모아
소작농
아오이
야전군
오리올
올라프
인천시
자작곡
장신구
제후왕
트렌드
포뮬러
화엄경
##투아네트
1608
작성하여
호놀룰루
##ration
paris
there
인터랙티브
season
照
貫
頼
뽐
##남선
##렌츠
##메디
##모모
##소니
##워터
##춘다
##타네
##토어
##환자
가칭
갈망
경산
교위
김남
단판
돋보
메콩
발문
베레
산개
순열
숨진
시한
신데
신창
약재
양해
엠넷
오웰
우이
원죄
조희
지크
질감
찬스
최창
측실
테츠
튀코
현도
화평
환도
##슬레이
고위직
메이어
무찔렀
물리량
미노루
발루아
베니스
빼어난
사마르
신속히
잡아내
크로마
프런트
헤이스
##anger
1555
1756
acid
link
orch
선덕여왕
인민회의
헝가리인
final
에스메랄다
에이브러햄
##_4
##ен
兄
微
愚
##개토
##려고
##리엘
##읍성
##인회
##체크
##회원
##oon
ny
계율
고금
고레
극본
끝마
놀랐
다원
메로
몸담
선착
손톱
쓰나
오정
임치
작별
잠금
장한
주영
중이
증조
터졌
##까마귀
##나무과
##차세계
##컨트리
##케이크
232
그로스
노동부
볼프스
생명력
아토스
에드거
타디스
프랑켄
피하여
한국당
한국명
1635
1745
gard
rail
그레이스
남중국해
에일리언
하드코어
크리스티나
스트라스부르
劍
害
肉
障
須
쁘
##를로
##밸리
##뿌리
##여겨
##ces
국지
굴드
대저
독감
리퍼
마셨
마왕
말뚝
매그
명작
민방
본드
봉신
봉행
비견
사멸
사색
사오
색인
아덴
암꽃
얽혀
엔도
역관
엽록
운문
잡종
장화
책략
천막
프록
프루
화구
황주
##빌리시
840
opt
rub
tas
가만히
교육법
디나르
모티프
무안타
베릴륨
쇼토쿠
신호장
어댑터
용수철
저압부
적당히
준다고
파울리
블레이크
사쿠라이
아퀴나스
에너지원
프레더릭
liber
베니젤로스
한국기독교
colspan
央
燈
辭
텃
##감치
##몬테
##셔츠
고착
공의
남강
뉴펀
다롄
도파
미달
법명
뷰티
서곡
소치
신랄
언행
외장
우시
윈터
입석
제논
조안
최윤
추도
쿠라
폐해
허수
##류족론
##크로스
##icus
광주군
순서수
암살자
엘비스
오시마
이방인
철광석
크레딧
휘그당
##컬럼비아
##프로이센
##inger
1645
1694
3500
모듈러스
소프라노
입사하여
자유자재
카트리지
투입하여
트랜잭션
트리니티
한국일보
브라질레이
앙투아네트
secret
##70
帥
顔
魔
쉼
##시기
##화사
bp
가다
갈대
권신
그야
능률
메흐
몸소
방재
백국
봉지
부팅
북북
산세
시화
아길
아만
알비
에일
읍성
일깨
일찌
장형
집산
철갑
커밍
프롬
합한
휴먼
##방송국
##출판사
ira
sen
경제부
공예품
군주국
디에고
리베리
발트해
알아볼
이시카
자가용
적시타
전산망
전투단
제이콥
통감부
1621
1659
뉴클레오
라인란트
마르코프
불러들여
사무국장
지그문트
데메트리오스
콜라보레이션
묀헨글라트바흐
##bu
に
歲
諡
降
숱
##북부
##스쿠
##운수
##지인
##rix
bh
va
그건
녹스
닉스
도당
도카
망각
반자
백군
번트
분묘
상술
선악
쇼난
순결
스마
시세
씌워
어용
에러
인두
장진
커튼
태사
텔로
페달
##동자구
##인협회
##ques
fac
pdf
니콜로
루치아
마술사
미술사
브라만
시흥군
엘리사
여수시
우승국
원주시
윤선거
파비아
피니쉬
하동군
kiss
muse
prop
가니메데
반공주의
아오야마
취임하여
##차세계대전
뉴펀들랜드
culture
machine
advanced
##ni
勤
춥
##동리
##렁크
##봐야
##스틱
##ief
공구
도고
류성
리자
상성
선관
수유
숭정
스투
스푸
심혈
역경
외도
요란
워치
은화
이보
입혀
정미
정액
죽전
쾌적
퀸스
티르
폐막
행장
호드
후천
##게이션
##니다드
##드리치
eth
물방울
상층부
서커스
소방서
연면적
연합체
오베르
율리오
전도사
통한다
호프만
후지코
1559
adam
lord
virt
그야말로
디케이드
모노레일
볼드모트
트빌리시
안드레아스
테살로니키
새천년민주당
撫
鴻
##네다
##벅스
##슬란
##실리
##심의
##올리
##제트
##첸코
##총련
bd
ee
qs
건재
공회
군법
귀결
뜨거
랠리
막달
방목
백부
빗대
송곳
안트
엘라
열병
유종
인품
정안
중정
징벌
충적
치켜
팬텀
포용
하북
행할
후버
후술
bos
감독관
녹는점
리카르
마음먹
몬태나
반역자
부총재
브룩스
송광사
위그노
이승훈
장관직
책임지
청년단
충무공
카니발
케이지
특파원
팬클럽
##osoph
1080
1520
1634
1722
1764
russ
공화주의
무스타파
지휘하여
instr
하프라이프
awards
##of
喪
幕
攝
項
##가우
##바탕
##브나
##안보
##프슨
##해전
거지
곤경
군장
기선
김신
대도
루키
바벨
발돋
볼가
비안
송영
시아
신증
십이
애쉬
양말
역병
유부
입방
전출
키에
필로
황성
##룸푸르
##진스키
##카이치
##콘티넨
##하우젠
cad
mgm
pen
곰팡이
마자르
비행선
스토크
위기종
이뤄져
자치시
컨버터
호시노
흡혈귀
##스케이프
1583
1757
방송통신
온게임넷
체르노빌
롱스트리트
인민위원회
잘츠부르크
크리스토프
타지키스탄
express
브리티시컬럼비아
š
潭
禧
##구려
##대상
##더지
##동국
##생학
##ohc
jd
개점
거침
구레
기려
낙농
닐스
다대
단숨
도바
레베
박물
산학
서화
스틱
어촌
요나
인방
징용
카고
카렌
허벅
홍영
흉년
##레슈티
245
lng
광개토
나치스
뉴욕시
덕수궁
번역가
사타케
서양인
에레디
연구가
연구회
요크셔
하이젠
##레스테롤
1388
1632
1653
view
나가노현
미쓰히데
바르바로
스키피오
양자역학
탄화수소
플로이드
민주정의당
뉴사우스웨일스
##16
授
標
짤
##고루
##니차
##동대
##벨라
##상사
##조지
##지우
##키르
##토기
##합병
감실
금당
금욕
나그
나방
내버
레가
뤼순
모성
백합
보필
불도
비각
세심
실화
아토
안료
의안
자폭
정윤
줄인
진자
초본
총영
치성
파섹
합주
##라리온
##ette
atc
din
dir
pur
rel
ren
tna
usd
검찰청
금지령
라스트
레이트
레인지
무서워
법률가
사세보
세종시
수산화
오로치
이마트
전태일
페르시
후쿠치
##타르코스
##ector
##ences
1595
1606
1675
1688
그려진다
끌어들였
바르톨로
원더걸스
인문주의
출생하여
행방불명
marie
인터콘티넨
micros
보성전문학교
は
伐
薛
血
限
깬
##국가
##군단
##천후
##ois
lv
게으
고상
군축
급한
남곤
노블
다뤘
답사
덕종
두건
등가
바야
반짝
백선
본뜬
비관
설날
성희
소성
손발
앉히
외적
외측
일전
정위
조업
징조
채광
책점
첨탑
친해
쿠키
통풍
판화
폐암
풍산
화포
##토니오
##osis
257
911
jud
kor
sex
url
vfb
거부권
넥서스
리버스
부대원
사라센
아크로
아프간
어워즈
자치현
제천시
클로즈
테크닉
1565
1646
come
self
xbox
개최하여
잃어버렸
##준비위원회
스프링필드
로드아일랜드
브라질레이루
##13
##14
卯
班
睿
驪
팁
##보쿠
##하탄
##oli
과소
균류
기예
낙후
대궐
덕양
데빌
도나
밋밋
베크
비누
산후
섞이
소꿉
속명
신랑
신영
아일
이쪽
입소
재킷
전연
제소
진경
청약
초순
타결
통달
평단
함안
##개구리
##마어마
##손가락
##스토어
##시아스
##ista
##ould
bir
ern
로미오
베니토
비서실
수식어
어지럽
우메다
이산해
카메오
클레멘
타이난
해적단
훈구파
히라이
마사유키
무라야마
블루투스
어마어마
카타니아
표현주의
stage
아프로디테
##tn
〕
味
潘
綠
胤
좇
##드나
##무대
##밍고
##발디
##불사
##블라
##상도
##실린
##클러
##타기
##파지
##ken
##une
dw
건넌
겐신
공권
기강
난항
당겨
똑똑
료마
맬컴
묻힌
반목
불거
사행
서무
숭상
식생
알토
에지
우암
은유
의기
일광
절지
정준
질식
차갑
최우
최익
최재
취입
폴더
피폭
혜공
map
구로구
단숨에
로그인
모리슨
무수히
백작령
볼거리
서라벌
소장품
순례자
신뢰도
연령대
오래되
웨이트
음악인
중남미
타악기
포츠담
후지타
1587
tran
노바스코
니노마루
칼리스토
현대그룹
##코사우루스
부쿠레슈티
콜레스테롤
교육과학기술
»
彩
旅
豆
넋
##공간
##교차
##노바
##버니
##변사
##소닉
##운영
##카제
##rib
가무
고신
기즈
기흥
김자
다진
대내
등식
디리
멸하
미타
발하
부로
북주
상냥
서킷
시무
신령
엑셀
위르
장손
정략
침실
피복
휴고
##뜨린다
415
570
670
las
관측소
기민련
눈여겨
다녀오
도망친
마주치
법률안
에볼라
올라서
유일종
쟁탈전
전선군
중남부
최충헌
코베인
크레인
한라산
호치민
##국민회의
1526
1626
mary
stan
글래스고
리마스터
오리올스
크리스티아
⟪
模
覆
##동사
##룬디
##보건
##순이
##시간
##웨인
##위하
##이시
##작가
##틸라
##포크
##kin
##uel
##zer
교목
나하
누드
니더
덮인
데시
맹주
백석
부군
비버
빈부
사별
서천
선무
수운
수형
시추
영안
외선
유두
유량
이끼
전등
종손
지프
처사
천인
클립
투아
항속
해갔
협소
환대
흐트
##과학부
##메이드
##종공신
##타우펜
bul
dim
rat
감염자
기념장
더빙판
발표회
볼스터
수도자
스쿼드
승문원
시리얼
신생아
자유도
제조물
조조군
주둔군
징역형
투데이
퍼블릭
포워드
##ember
1773
plus
take
가나자와
신데렐라
중일전쟁
크라쿠프
노바스코샤
평양직할시
한성부판윤
august
##99
##ал
à
倫
##기계
##동진
##베라
##서버
##아기
##젠더
##징금
##텔라
경단
관복
김봉
꼽혔
낙점
난조
대강
데프
동궁
레아
박규
별시
복도
스즈
에고
연경
연변
예지
오피
유쾌
이직
입건
체신
캡콤
키커
##글라스
##마이어
##raft
316
공작령
말라야
민정당
번치현
세력권
송병구
수에즈
양준혁
여성부
오로라
오메가
충주시
케이시
털어놓
파이낸
프로메
피난처
1457
1534
1540
1594
stra
베트남어
태백산맥
freed
노르트라인
홍익대학교
foundation
ᄃ
匠
級
蹟
釜
##관총
##라치
##루시
##르담
##양동
##운지
##코바
##콜리
##훈련
##chi
##ocr
##ume
tf
계파
그쳐
김소
능했
대잠
도처
동주
마실
묶음
배선
브이
비고
빌레
순절
알선
앵무
외성
출하
큰곰
통째
하숙
획책
휘문
##의사당
##절제사
333
lie
rca
거듭나
맞은편
분류학
브란트
산사태
안성시
원세훈
이사국
이착륙
자연석
카시니
카이퍼
콘셉트
페넌트
펼친다
표지판
호스팅
##모모야마
1530
1767
days
inte
java
병합하여
아시아인
어린아이
자유로이
진행하여
폴란드어
부산대학교
에우메네스
팬터그래프
engineering
##46
淮
샵
쏴
챕
튕
##국회
##넬리
##들린
##물질
##슬램
##장기
##칠성
##키리
##ila
검지
과열
노토
농협
독보
떠들
반려
병설
성좌
슬래
시리
여제
완주
원류
유병
이찬
인스
잇키
접했
처가
촘촘
충만
해로
##ergy
ris
고사기
공집합
깊숙이
대표부
동호회
등록명
빌리지
상거래
쇼가쿠
스콜라
올라섰
원순서
주변국
지배력
폭발력
폭풍우
해방군
1553
1640
paok
rand
want
네이티브
라파예트
슈퍼마켓
연개소문
옥스포드
apple
보수주의자
크라이스트
是
青
꽁
##군부
##나루
##대한
##발리
##운전
##지청
기거
낙마
달인
대권
멈춰
물권
물색
미행
민다
백련
비신
산불
삼일
상좌
석좌
아론
약관
양치
염오
위크
정력
탬파
통수
편미
포커
푸에
하퍼
헬스
호두
##클레어
##itan
##last
710
930
dan
hur
sus
고용주
내려놓
단체장
더라면
막아냈
매도인
부녀자
비스트
시흥시
으니까
이시영
임진강
정일권
지급시
척탄병
쿠알라
타쿠미
흩어진
##사회주의
##inary
1707
1715
arth
fort
true
라테라노
번갈아가
엔비디아
오리엔트
프리랜서
women
받아들인다
commit
고시라카와인
볼프스부르크
φ
〔
箕
而
芝
鬪
##부쿠
##색슨
##인명
##청색
##포츠
게양
교민
내과
도굴
둘렀
따름
묘청
밤낮
배움
봉천
사선
숨지
스매
야오
예송
우미
유코
천둥
치소
치욕
피플
행주
형세
후나
##아미타
##영화제
##즈베리
##lect
251
arc
nxt
por
see
강해졌
교수진
교통로
국민총
무인역
버금가
법학자
사라왁
선발전
선보여
스트롱
스피릿
아드리
제물포
지나갔
커플링
콘트라
통째로
투성이
##렌부르크
1418
1562
1575
1622
alph
가진다고
그리니치
기울어져
돌려보내
메인보드
을사조약
포스트모
핼리팩스
호그와트
brand
람보르기니
그레이트브리튼
아즈치모모야마
champion
##mc
â
凉
教
算
脫
푹
##냐크
##복싱
##서면
##섹스
##차량
##티티
##met
##uit
감도
검문
김책
노고
대북
리트
밧줄
불쌍
삼십
스탬
아난
아문
약초
양녀
엘레
익혀
일개
장생
청백
팬덤
화분
훈족
##그레브
##웨이브
##음보살
303
668
mph
nar
oct
sha
가쓰라
거제도
노키아
만토바
무인도
비로자
쉐보레
알앤비
앤드류
이주자
재래선
중수소
##estra
##field
공공연히
남태평양
사보이아
슬라브족
아이누어
테레지아
프로파일
베텔게우스
시에라리온
알렉산드라
오디세우스
포르투갈인
report
‧
壯
婦
얌
즙
##가사
##감리
##노베
##동면
##렉틱
##목사
##수호
##존자
##타오
##후국
##ota
nr
간염
겸한
공교
굳히
내건
덴지
들러
사저
상복
섭외
습한
신평
아로
액화
야로
언양
에센
오공
왕녀
윤용
청천
총관
켤레
코요
토라
파노
판문
필즈
해줬
향유
홍해
황토
##세서리
##스터즈
313
876
ace
jyp
npc
tnt
tro
고단샤
공중파
기록물
다카오
돌출부
리라고
모음집
발사기
빨치산
실학자
아카시
영양분
유격대
이정희
제트기
주모자
최고점
카디프
카스피
켈트족
퀘이사
홉킨스
1584
1588
1655
다카마쓰
드러낸다
모른다고
불가사의
엠파이어
요시모토
존재하여
크리스천
트리니다드
형사소송법
number
##ht
ᄅ
稷
融
봅
쉘
##레온
##렉터
##받이
##야드
##여름
##aka
##apt
##ili
##ray
gw
강박
극진
동면
미남
범종
본연
봉고
비슈
비축
사의
순창
시주
오십
장론
지롱
참회
치매
치부
커질
토큰
통킹
티토
판자
포이
할대
험한
##그로스
##안전부
470
갈라졌
기동력
김성근
노원구
논산시
도망갔
발돋움
사토시
삽입곡
순환선
알자스
야마다
양전자
어울려
외조부
징병제
코시모
플레밍
혼계영
휴식기
히카리
##ellow
랭커스터
러일전쟁
스탠포드
접근하여
헤이세이
히데타다
idolm
마이크로파
studio
##국영
##누크
##데나
##무니
##부시
##어업
##에시
##연극
##체프
##항전
##환국
##gor
가꾸
고액
구스
궐기
귀한
기화
난형
닷넷
대소
동이
라르
문익
미안
부현
브와
색슨
선내
실베
연원
임했
자족
죄악
초속
콜레
태위
통곡
파평
하토
해마
홍천
황우
효령
##구락부
##소학교
##수산부
##슈테트
##청년단
##페브르
mou
건너갔
게자리
계약자
괴롭혔
근연종
급성장
나가이
나시오
당상관
댄포스
매개체
모음곡
문학가
미스테
보성군
부주석
수상작
스러움
심해졌
어쩌면
여행객
의열단
인디아
제시카
제자리
진평왕
플라자
한의학
허벅지
회의실
1599
1725
1768
sche
독립신문
만리장성
세바스토
프리메이
vocal
바르바로사
페르디난드
하이젠베르크
寂
岸
逆
##왕묘
##재윤
##진리
##토레
##히어
##mon
가측
강정
강직
경색
과로
김무
답하
데크
도치
문희
물길
미끼
북양
상전
상형
소명
소하
스물
스팸
십진
썸머
쓰구
쓰리
아톰
야영
양립
에덴
용문
유탄
이랑
전립
정석
참지
토고
피격
하카
호로
##iana
##osph
236
247
630
jer
걸림돌
경건왕
데려왔
보이오
보한다
불순물
슬라이
월간지
자라났
조이스
증기선
해양부
헤어지
호르헤
황무지
1467
1730
vvvf
구입하여
늘어난다
마이너스
모토나리
반영하여
상륙하여
성스러운
일찌감치
핀란드어
board
movie
고생물학자
패트리어트
english
##27
##내려
##락스
##사장
##시프
##싸움
##의료
##해야
fd
ox
국책
대함
랑고
리지
리한
보소
부츠
산마
서영
셀틱
소백
스며
식수
아체
약진
워킹
웰스
위트
적개
제과
진봉
챕터
초성
캐슬
토사
통고
폭정
황화
##관학교
##문화재
강동구
건조물
게이힌
고아원
기관포
난쟁이
달라붙
명문가
받침대
법화경
벡터장
아산시
에밀리
오마이
외아들
을미사
출연진
현상금
##iment
1616
1661
hans
가이우스
미트라교
아이리스
추진하여
##베스트팔렌
에레디비시
series
아시아나항공
엠카운트다운
徵
接
材
蜀
裝
関
##기어
##라덴
##미안
##셴코
건지
국학
노여
노환
대보
면책
밀로
밀직
박힌
방파
봉했
비키
뽑힌
사향
산산
선례
수잔
슈타
스턴
양곤
어장
원호
일인
장마
조커
코디
터미
파블
판각
험준
흑점
##시아드
##제이스
##폴리오
##back
618
935
공고히
구부러
되도록
뒤따라
맞이했
살아온
서포트
수산업
시우바
아리마
앙투안
엔투스
영문학
임오군
장방형
춘천시
캐피탈
크리티
평택시
하이난
행선지
후쿠다
1494
1550
1611
1712
body
dest
기라티나
망명하여
밝혀진다
베르베르
실증주의
채택하여
쳐들어오
카리브해
트레일러
엘살바도르
한국과학기술
##ui
##ор
優
柴
頂
챠
쿵
##노자
##대손
##밍턴
##오브
##우에
##워킹
##푸드
##key
교유
기침
노회
달렉
도립
뜻밖
레슬
매화
목공
무연
반출
벨레
분교
산적
수라
순진
외피
요요
우발
적진
주앙
총열
폐포
피르
하버
##총연맹
870
caf
inn
mol
경전선
고속선
김정희
끓는점
다이요
달성군
디아스
마지못
몰아냈
방망이
세포질
신라군
유프라
육각형
이효리
적갈색
전문점
주택가
최용건
하리마
항등식
1754
경국대전
노트르담
니콜라오
마요르카
을미사변
이화여대
작용하여
조합하여
프란시스
인민공화국
france
##je
請
##불화
##천국
##타령
##tee
##val
강석
귀부
급부
김집
깨졌
내심
놀랄
다당
문민
버트
본떠
볼링
상석
석벽
쇠락
알콜
원사
원폭
점막
접영
졸라
진남
척준
초조
혈전
##박람회
##스타드
885
골든이
들어설
리디아
마가렛
미란다
배운다
분당선
애국자
예산군
요아힘
윤봉길
자유선
전순서
최규하
크누트
프레디
헌병대
형편없
1471
1769
exec
make
resp
가져온다
관음보살
모더니즘
바이너리
벌어진다
사라예보
스위프트
아우크스
요르요스
익스트림
포항제철
broad
central
т
##고로
##광대
##놀즈
##도프
##랜즈
##미션
##상과
##서구
##아우
##여고
##유리
##유수
##충원
##츠코
##폴드
##iae
ri
tp
궤적
김이
깨우
니치
대불
대흥
된장
뒷쪽
뛰쳐
리쿠
막말
면도
모략
바사
발성
베렌
선승
심양
월계
잘려
정방
천이
토치
퇴폐
합헌
휘장
##토피아
254
306
767
alf
gdi
rod
wel
갈고리
겐로쿠
공문서
내버려
레이첼
르베그
매수인
메시아
변하여
보름달
스토커
신승훈
의료진
지나갈
태양신
회의장
##아메리칸
1513
have
레인보우
머라이어
미네르바
스타벅스
알아차리
인스턴스
호조판서
##active
앵글로색슨
파이프라인
govern
##do
幹
還
邱
캣
##문드
##생산
##아마
##우도
##위시
##유물
##즈다
##판관
결연
권법
매혹
모른
믹싱
밝힐
베인
부검
사재
삭과
석물
수박
영접
완구
윤두
응오
종수
차포
촉군
칼초
파벨
페름
편년
폰티
할까
해조
혼례
##스토이
252
3.1
321
475
did
경쟁사
고등관
나이토
데이먼
드레이
레이어
마재윤
미스트
발매일
버려졌
부산항
설상가
시나이
아인트
아타나
에히메
위트레
절댓값
좌표계
지부장
토크쇼
피어슨
##조선연맹
1642
well
기요마사
되돌아갔
미야모토
분노하여
사회학과
심플렉틱
플랑크톤
베스트팔렌
블루제이스
힌덴부르크
서울교통공사
교육과학기술부
revolution
巫
拳
案
油
碧
蔵
讓
넵
앳
##데아
##디노
##류지
##미지
##버린
##별초
##사고
##오린
##워프
##저트
##조원
##즈비
##항일
##ema
##osh
가택
교습
구청
급등
꺼리
네버
노랫
도울
동질
레슨
루르
미림
미이
방광
벌목
부령
비화
산천
셋쓰
수보
어전
염분
영흥
예절
왈라
원당
이카
중인
티미
평점
한랭
##우주국
##ysis
258
580
970
그리핀
눈치채
백혈구
불태웠
사이비
수출품
스폰지
스플릿
아그리
아세트
아케치
어두워
에디슨
옮긴다
위스키
으라는
점령군
제노아
제다이
철원군
최남선
통일부
휩싸였
##atory
1711
term
경찰청장
떨어져서
레이더스
비토리오
수입하여
영입하여
임오군란
콤플렉스
노스웨스트
크로스컨트리
##lr
и
─
を
符
##런던
##석사
##선생
##아부
##케트
##토이
##한기
##sky
ki
가운
건기
국조
네우
다키
라라
레티
로워
매국
무스
백양
북중
분동
수재
에콜
올해
우금
원각
장계
창왕
챙기
튀김
표식
학풍
홍범
##디스트
##well
242
285
dcc
nhl
고조부
그래피
나츠미
동대구
따돌리
마도카
본존불
생산품
세자빈
아르마
에어컨
에우제
위기감
캥거루
케네스
테크니
트렁크
파티마
학교법
1394
1512
anth
feel
left
plat
고스란히
곤살레스
다이나믹
르페브르
수정하여
오층석탑
왼손잡이
요시히로
자그레브
sport
아일랜드인
알렉산드로
아우크스부르크
노르트라인베스트팔렌
森
牙
稱
賞
퓰
##기상
##례문
##바바
##정도
##코마
##튀르
##푸라
##현우
##호군
##omy
##unk
가인
견도
관보
김화
남우
너클
노반
다도
덤블
라빈
리빙
마담
메구
무굴

##이
##다
##에
##.
##의
##는
##로
##하
##,
##을
##1
##가
##고
##지
##서
##한
##은
##기
##으
##를
##0
##사
##대
##시
##리
##도
##2
##)
##(
##인
##년
##스
##자
##어
##아
##있
##일
##수
##라
##그
##나
##부
##되
##전
##9
##정
##해
##었
##과
##들
##국
##주
##제
##a
##성
##장
##적
##여
##e
##상
##했
##3
##동
##와
##게
##구
##였
##위
##만
##5
##원
##공
##보
##4
##8
##월
##선
##조
##o
##i
##며
##중
##r
##마
##6
##트
##경
##세
##유
##신
##소
##드
##s
##화
##7
##비
##우
##문
##학
##t
##교
##n
##미
##것
##오
##계
##후
##m
##명
##면
##르
##개
##치
##l
##연
##용
##관
##진
##모
##회
##된
##터
##등
##"
##발
##러
##c
##역
##군
##영
##당
##무
##프
##작
##재
##데
##방
##타
##단
##거
##니
##산
##간
##통
##분
##생
##내
##반
##차
##u
##민
##체
##음
##행
##레
##안
##바
##'
##포
##때
##운
##식
##할
##카
##크
##d
##본
##호
##노
##요
##파
##종
##f
##실
##물
##현
##양
##출
##임
##두
##함
##결
##던
##려
##남
##속
##형
##야
##h
##표
##히
##p
##각
##설
##강
##루
##토
##-
##력
##법
##직
##독
##승
##태
##입
##키
##불
##업
##b
##g
##않
##점
##건
##까
##받
##또
##코
##합
##래
##았
##초
##버
##록
##약
##최
##권
##배
##예
##디
##매
##번
##왕
##격
##k
##피
##말
##같
##른
##심
##없
##판
##천
##더
##처
##금
##알
##추
##투
##따
##베
##메
##달
##감
##티
##외
##란
##활
##항
##·
##집
##평
##립
##편
##열
##청
##저
##《
##》
##복
##특
##브
##목
##언
##린
##변
##북
##석
##병
##네
##향
##령
##v
##많
##족
##근
##황
##난
##질
##테
##준
##름
##람
##류
##급
##능
##즈
##존
##y
##론
##랑
##광
##총
##술
##살
##쪽
##페
##참
##별
##올
##환
##온
##박
##김
##악
##~
##송
##증
##w
##철
##절
##울
##축
##품
##졌
##창
##량
##돌
##새
##료
##육
##져
##백
##확
##께
##든
##순
##망
##쿠
##곡
##패
##쓰
##쟁
##필
##플
##및
##머
##규
##견
##날
##색
##범
##련
##친
##애
##케
##탈
##워
##팀
##극
##_
##손
##못
##글
##탄
##:
##너
##삼
##책
##뒤
##막
##클
##접
##째
##림
##충
##완
##담
##습
##측
##랜
##녀
##협
##봉
##혼
##런
##채
##취
##골
##겨
##밀
##퍼
##길
##’
##귀
##‘
##곳
##벌
##럽
##험
##침
##션
##죽
##츠
##칭
##높
##누
##쳐
##찰
##블
##갈
##씨
##엔
##났
##암
##즌
##/
##첫
##슬
##허
##커
##잡
##착
##큰
##x
##획
##앙
##폭
##볼
##례
##효
##움
##락
##헌
##렸
##슈
##응
##j
##논
##웨
##즉
##징
##센
##득
##널
##느
##끝
##%
##검
##뉴
##퇴
##왔
##압
##희
##걸
##럼
##풍
##틀
##맞
##될
##좌
##택
##줄
##농
##층
##폐
##폴
##앞
##써
##념
##캐
##찬
##홍
##늘
##긴
##혁
##헤
##]
##[
##맡
##율
##윤
##섬
##갖
##〈
##〉
##덕
##익
##먼
##몇
##잘
##밝
##엘
##“
##”
##냈
##휘
##릭
##얻
##억
##궁
##갔
##싱
##얼
##앨
##맹
##므
##턴
##엄
##닌
##숙
##z
##묘
##>
##균
##벨
##훈
##<
##좋
##괴
##넘
##빈
##콘
##링
##슨
##염
##뜻
##램
##켰
##옥
##흥
##델
##픽
##객
##팔
##몰
##빠
##찾
##빌
##킨
##떠
##칸
##혀
##혹
##붙
##쇼
##몬
##핵
##뿐
##둘
##렌
##놓
##됐
##맥
##힘
##템
##끌
##칼
##낸
##률
##컴
##싸
##컵
##릴
##롯
##탑
##흐
##덴
##액
##욕
##콜
##켜
##텔
##칙
##척
##략
##십
##굴
##떨
##샤
##푸
##뷔
##눈
##갑
##잠
##먹
##몸
##졸
##벽
##쳤
##밖
##렇
##죄
##풀
##끼
##홈
##핀
##겼
##휴
##웠
##룹
##꾸
##잔
##륙
##탁
##곤
##뛰
##멸
##칠
##벤
##렀
##맨
##혔
##렉
##大
##몽
##혜
##딸
##잉
##낮
##」
##겠
##「
##녹
##틴
##켓
##뮤
##돈
##탕
##촌
##둥
##폰
##춘
##랐
##님
##혈
##컬
##욱
##톤
##윈
##떤
##넷
##퓨
##냐
##털
##톨
##둔
##겸
##솔
##쿄
##촉
##홀
##컨
##꽃
##렬
##왜
##킬
##셀
##탐
##슷
##곧
##헨
##뇌
##팅
##낙
##q
##붕
##밴
##옮
##텐
##!
##넣
##롤
##깨
##넓
##빛
##듬
##?
##융
##옹
##값
##흔
##섭
##땅
##덜
##렵
##흑
##팬
##답
##놀
##힌
##앤
##펜
##金
##山
##롭
##李
##겐
##짓
##셔
##쌍
##랙
##헬
##즘
##뢰
##쇄
##룬
##맺
##닝
##딩
##챔
##쉬
##멤
##씩
##멘
##듯
##쉽
##룡
##콩
##잃
##흡
##궤
##킹
##납
##쥐
##웅
##젤
##닉
##읍
##숨
##깊
##짜
##닥
##옛
##릉
##튼
##윌
##밤
##믿
##큼
##끄
##큐
##王
##섯
##랫
##=
##+
##랭
##웃
##쓴
##찍
##젝
##튜
##펼
##州
##젠
##멀
##뜨
##숭
##文
##즐
##잎
##뀌
##빙
##캠
##짐
##듀
##펠
##빨
##國
##롱
##엽
##쇠
##돼
##곱
##짧
##덤
##&
##멜
##텍
##웹
##핑
##뷰
##밍
##잇
##꼬
##겪
##삭
##쌓
##밑
##빅
##썼
##城
##폼
##』
##『
##낳
##뉘
##셰
##랍
##三
##빼
##첨
##벗
##혐
##틱
##듣
##싶
##젊
##왼
##子
##옆
##中
##냥
##곽
##멕
##됨
##;
##읽
##낭
##옷
##흘
##냉
##삶
##롬
##道
##컷
##氏
##릿
##人
##學
##힐
##꿈
##켈
##촬
##天
##낼
##틸
##섰
##톱
##東
##法
##헝
##럴
##첩
##콤
##安
##켄
##럭
##事
##°
##뒷
##닛
##끊
##캘
##딘
##앗
##公
##엇
##셜
##寺
##봄
##묵
##셋
##벼
##書
##뿌
##띠
##닐
##벡
##룩
##軍
##平
##랄
##좀
##南
##얀
##宗
##숫
##팽
##뤄
##붉
##픈
##씬
##正
##퀴
##뱅
##묻
##떻
##믹
##덮
##엑
##흰
##륜
##튀
##늄
##잭
##쾌
##쓸
##춤
##義
##맛
##괄
##|
##府
##쫓
##찌
##짝
##숲
##뽑
##쿨
##팩
##늦
##슴
##첼
##一
##꼽
##셈
##깔
##닫
##렴
##샌
##川
##훨
##꺼
##∼
##高
##늬
##앉
##é
##元
##使
##덧
##長
##븐
##君
##탱
##넬
##成
##石
##明
##院
##・
##뼈
##–
##댄
##끔
##끈
##뤼
##꼭
##太
##녕
##海
##횡
##캄
##흉
##륨
##훗
##웰
##덩
##꾼
##上
##듭
##톰
##캔
##陽
##봇
##밥
##行
##都
##앵
##無
##郡
##렘
##펴
##地
##샘
##팝
##德
##ᆞ
##原
##엠
##神
##좁
##춰
##世
##武
##렐
##싼
##멍
##田
##윗
##륭
##日
##家
##本
##西
##깃
##光
##司
##뮌
##묶
##主
##會
##겔
##햄
##門
##部
##政
##궐
##눌
##랩
##뚜
##쿼
##훌
##×
##룰
##겹
##섞
##꺾
##펙
##딕
##官
##삽
##꼴
##뉜
##띄
##生
##縣
##仁
##녔
##新
##늑
##깥
##水
##룸
##긍
##퀘
##韓
##北
##相
##탠
##넥
##五
##經
##夫
##윙
##낌
##갤
##뱀
##깝
##셉
##돕
##틈
##빗
##漢
##똑
##펄
##龍
##뿔
##킴
##史
##а
##슐
##皇
##臣
##굳
##理
##힙
##忠
##心
##興
##빵
##敎
##聖
##馬
##딜
##朴
##빚
##白
##첸
##둑
##딱
##쌀
##닷
##性
##훼
##겁
##툴
##善
##有
##녁
##푼
##所
##홋
##將
##記
##朝
##知
##江
##킥
##帝
##섹
##렛
##鄭
##돔
##和
##民
##林
##定
##갱
##퀸
##닭
##펀
##멈
##宮
##흙
##全
##넌
##껍
##尹
##張
##→
##뻗
##士
##不
##慶
##쏘
##C
##옵
##봐
##죠
##밭
##펑
##小
##곰
##十
##α
##턱
##化
##四
##뮬
##佛
##の
##컫
##方
##겉
##굽
##렷
##島
##時
##下
##킷
##同
##信
##堂
##京
##昌
##河
##о
##맷
##핸
##툰
##쯤
##代
##떼
##洞
##탓
##팡
##師
##羅
##古
##톡
##딴
##論
##싫
##樂
##랴
##넨
##永
##之
##守
##럿
##崔
##校
##二
##前
##и
##릎
##淸
##셸
##릇
##里
##옌
##禮
##뚫
##콕
##엉
##닮
##뇨
##줬
##벳
##콥
##像
##칩
##붓
##祖
##꿀
##松
##밸
##굉
##八
##通
##趙
##룽
##걷
##낱
##듈
##*
##社
##派
##콰
##쁜
##孝
##눅
##툼
##權
##重
##닿
##핫
##孫
##셨
##華
##後
##댐
##풋
##콧
##見
##圖
##內
##н
##봤
##曹
##왈
##年
##尙
##黃
##냄
##劉
##字
##陵
##퉁
##判
##六
##홉
##펌
##月
##吉
##굿
##긋
##꾀
##솟
##헐
##殿
##흩
##分
##맵
##自
##е
##身
##木
##띤
##샬
##洪
##兵
##柳
##낀
##쉐
##基
##쏟
##잊
##샹
##集
##놈
##캡
##р
##議
##名
##얘
##功
##合
##制
##엣
##郞
##걱
##監
##物
##雲
##衛
##곁
##갓
##얇
##흠
##с
##돋
##體
##껴
##둠
##章
##휩
##寧
##面
##鎭
##市
##承
##順
##直
##`
##꿔
##밟
##業
##젖
##春
##컸
##侍
##슘
##立
##덟
##的
##옴
##觀
##周
##宣
##굵
##솜
##쑤
##뭉
##짙
##者
##쥬
##훔
##左
##景
##源
##靑
##星
##廣
##根
##思
##뚝
##뀐
##삿
##쿤
##傳
##챌
##治
##副
##智
##쁘
##說
##典
##멋
##잦
##к
##九
##쩌
##ü
##眞
##野
##后
##花
##英
##횟
##節
##令
##貞
##퐁
##휠
##色
##康
##利
##宋
##á
##렁
##얄
##別
##界
##꽤
##實
##萬
##댓
##ο
##村
##륵
##덱
##臺
##씀
##鮮
##앱
##끓
##딪
##福
##位
##應
##憲
##歌
##팜
##谷
##度
##作
##女
##핍
##寶
##御
##ー
##햇
##戰
##開
##造
##空
##뒀
##省
##왓
##웬
##徐
##슭
##壽
##美
##갇
##建
##館
##떡
##修
##奉
##式
##в
##吳
##外
##親
##앓
##侯
##良
##語
###
##맏
##塔
##츄
##命
##濟
##엿
##줌
##老
##識
##얹
##쯔
##形
##動
##玉
##빔
##阿
##※
##唐
##泰
##音
##픔
##≪
##≫
##科
##л
##進
##詩
##톈
##붐
##国
##右
##т
##옳
##짱
##$
##텀
##옐
##參
##申
##ö
##秀
##몫
##μ
##間
##펫
##괘
##土
##來
##流
##찔
##錄
##敬
##씌
##눠
##等
##對
##弘
##言
##•
##닦
##數
##깎
##藤
##風
##賢
##쟈
##벅
##캉
##號
##썬
##뤘
##族
##꼈
##津
##갯
##땄
##맑
##맘
##常
##陳
##在
##ι
##ν
##梁
##七
##ā
##反
##延
##끗
##ó
##藏
##뭇
##如
##溪
##낫
##玄
##甲
##팟
##多
##意
##い
##禪
##想
##텝
##保
##用
##諸
##工
##志
##印
##井
##벵
##達
##얽
##線
##뻔
##朱
##齋
##밋
##護
##줘
##、
##깐
##許
##任
##楊
##슛
##ا
##ς
##密
##百
##碑
##路
##驛
##샨
##ン
##탤
##佐
##볍
##受
##伯
##關
##頭
##ρ
##異
##祭
##郎
##τ
##先
##뜬
##口
##車
##쾰
##쭉
##儀
##浦
##勝
##起
##촨
##멧
##現
##愛
##氣
##統
##뱃
##쩔
##ε
##뻐
##解
##靈
##我
##豊
##튬
##챙
##器
##ä
##낚
##處
##務
##魏
##헥
##뚱
##λ
##烈
##非
##商
##出
##領
##○
##鳳
##늙
##뾰
##鄕
##싹
##伊
##앰
##慧
##샀
##σ
##果
##益
##竹
##遠
##秦
##찮
##―
##걀
##δ
##м
##容
##í
##運
##낄
##力
##夏
##加
##調
##亭
##千
##因
##싣
##삐
##얕
##園
##錫
##曲
##麗
##晉
##곶
##촛
##鐵
##遺
##畵
##랬
##居
##妃
##츰
##쉴
##盧
##껏
##꿨
##恩
##雄
##깜
##昭
##秋
##提
##꽂
##갚
##κ
##싯
##팍
##}
##榮
##草
##火
##團
##뿜
##丁
##紀
##橋
##戶
##致
##員
##從
##熙
##짖
##柱
##黨
##뮈
##엮
##헛
##핏
##尉
##惠
##能
##■
##뭄
##욘
##場
##得
##樞
##{
##캅
##湖
##崇
##結
##姓
##굶
##몹
##랏
##챈
##沙
##섀
##윅
##»
##렝
##次
##姜
##뫼
##吏
##植
##表
##냅
##쪼
##仲
##圓
##品
##報
##д
##팰
##管
##썩
##탭
##듐
##房
##蘇
##彦
##샐
##察
##탬
##«
##試
##€
##렙
##坐
##沈
##系
##顯
##뜸
##嘉
##術
##機
##象
##齊
##훤
##營
##췄
##室
##魚
##찢
##獻
##卿
##牧
##泉
##舍
##覺
##薩
##極
##波
##資
##귄
##캣
##咸
##恭
##쾨
##빽
##鍾
##у
##룻
##俊
##初
##陸
##首
##第
##宇
##虎
##β
##角
##늪
##π
##手
##엎
##入
##始
##變
##—
##尊
##贊
##母
##群
##뜰
##믈
##웍
##目
##훙
##仙
##陰
##꿰
##넉
##샵
##半
##쵸
##僧
##윽
##隨
##궈
##律
##惡
##少
##類
##完
##緣
##짚
##乙
##쁨
##觸
##香
##탔
##엥
##й
##귤
##딧
##境
##뇽
##可
##씻
##@
##池
##舞
##壇
##岩
##瑞
##靖
##富
##支
##死
##船
##넛
##셴
##겟
##핼
##總
##깁
##ん
##릅
##嚴
##局
##菩
##큘
##è
##뭐
##촘
##共
##溫
##墓
##뮐
##倉
##普
##즙
##☆
##住
##衣
##峰
##衆
##苦
##뜯
##丹
##퀄
##發
##翼
##눔
##ل
##邊
##台
##둬
##莊
##。
##둡
##댈
##取
##貴
##純
##連
##條
##越
##샷
##博
##種
##區
##숍
##奇
##職
##赤
##쿡
##爲
##男
##舊
##꼼
##執
##督
##座
##町
##久
##蓮
##낡
##庵
##呂
##轉
##範
##괌
##쿰
##淑
##邑
##맴
##農
##淨
##텅
##퓌
##閣
##췌
##惱
##輔
##復
##銀
##廟
##禁
##足
##淵
##故
##돗
##튠
##私
##近
##彌
##燕
##父
##郭
##欲
##層
##旨
##녜
##γ
##な
##期
##엡
##し
##淳
##交
##喜
##儒
##備
##勳
##訓
##友
##持
##퀼
##情
##멩
##巖
##젯
##具
##딥
##욤
##毛
##盛
##珍
##隆
##慈
##陀
##슌
##쑨
##イ
##う
##켐
##か
##射
##臨
##젓
##板
##땀
##맬
##팎
##벙
##哲
##麻
##껑
##電
##允
##産
##멱
##肅
##那
##列
##′
##ス
##精
##−
##戒
##均
##念
##±
##劇
##丘
##址
##蔡
##今
##隊
##布
##킵
##祠
##藝
##閔
##잣
##캇
##斗
##刑
##鶴
##숀
##牛
##똥
##譜
##協
##載
##잼
##り
##比
##離
##眼
##謙
##괜
##п
##댕
##볶
##\
##澤
##孔
##몄
##벚
##餘
##獨
##η
##밈
##兼
##썰
##煩
##魯
##츨
##靜
##滅
##留
##裵
##챠
##폈
##岳
##慕
##쏜
##쏠
##г
##球
##賀
##샴
##誠
##孟
##桂
##葉
##養
##洛
##狀
##羽
##뺏
##と
##ラ
##亂
##学
##邪
##쥘
##쨌
##祿
##素
##딤
##戦
##量
##冠
##廳
##胡
##윔
##б
##ル
##雨
##葛
##要
##釋
##銅
##뵈
##内
##岡
##型
##촐
##弼
##約
##鏡
##낯
##칫
##훅
##깅
##θ
##摠
##聲
##밧
##る
##兩
##封
##改
##至
##若
##雙
##슝
##퓰
##件
##貪
##롄
##考
##懿
##乘
##于
##樓
##檢
##晋
##쉰
##向
##龜
##た
##洋
##補
##單
##뎀
##奎
##丞
##句
##己
##清
##甫
##綱
##뭔
##辛
##팻
##希
##特
##質
##騎
##랠
##假
##助
##リ
##夷
##諦
##쥔
##я
##然
##뇰
##쐐
##茂
##僉
##斷
##穆
##聯
##聞
##防
##뱌
##ト
##滿
##依
##煥
##袁
##짠
##ç
##剛
##製
##쩍
##問
##浩
##～
##增
##屋
##夢
##汝
##藩
##隱
##散
##帶
##蘭
##役
##摩
##桓
##漏
##輪
##求
##띈
##嶺
##講
##ω
##諫
##飛
##末
##寅
##計
##됩
##ы
##烏
##續
##雜
##醫
##늠
##麟
##잖
##辰
##펩
##刺
##酒
##格
##準
##端
##푹
##丸
##콴
##눕
##돛
##딛
##덥
##域
##易
##웜
##亨
##樹
##服
##펭
##욜
##選
##캥
##팥
##恒
##敏
##珠
##由
##誌
##遊
##鳥
##尾
##擧
##に
##엌
##錦
##υ
##細
##ь
##克
##好
##洙
##ί
##啓
##廉
##黑
##兒
##蘊
##征
##指
##翰
##^
##證
##以
##回
##放
##策
##簡
##紅
##き
##쑹
##ッ
##妙
##ά
##叔
##詞
##愼
##⁄
##く
##圭
##ł
##話
##遼
##퀀
##點
##皮
##署
##衡
##殷
##à
##敦
##厚
##威
##寫
##扶
##望
##梅
##食
##ن
##宰
##演
##骨
##볕
##俗
##題
##넴
##則
##籍
##育
##祥
##藥
##超
##읊
##ク
##曺
##뛸
##港
##雅
##丙
##倭
##未
##솥
##ら
##勢
##禹
##뛴
##ό
##裕
##願
##깡
##‧
##ア
##略
##僕
##契
##힉
##影
##襄
##왁
##ī
##š
##季
##ر
##注
##썸
##切
##屬
##難
##좡
##★
##条
##뀔
##匡
##最
##繼
##ي
##賜
##逸
##卷
##ч
##曆
##꽁
##헴
##洲
##웸
##程
##ᄀ
##徳
##茶
##軒
##갸
##댁
##寬
##筆
##廷
##納
##翁
##꿇
##お
##震
##퍽
##積
##銘
##먀
##梵
##染
##歸
##環
##邦
##쑥
##φ
##祐
##童
##깼
##م
##は
##뺨
##会
##巨
##財
##뎌
##斯
##簿
##뮴
##ま
##亮
##紫
##뺀
##횃
##宅
##庭
##昇
##欽
##刻
##惟
##徒
##젬
##و
##х
##얌
##盟
##織
##핌
##←
##夜
##罪
##感
##蒙
##譯
##엷
##客
##操
##雪
##さ
##休
##눗
##땐
##웁
##再
##캬
##炳
##蓋
##追
##놉
##뽀
##옅
##庫
##찼
##庶
##掌
##陶
##ち
##巡
##版
##眠
##嬪
##翊
##勞
##委
##革
##쉘
##쿵
##タ
##乾
##懷
##鉉
##튿
##팸
##技
##登
##뻘
##찻
##こ
##宜
##才
##楚
##過
##疏
##鑑
##固
##推
##晩
##爾
##琴
##씹
##ú
##尼
##止
##習
##꽝
##룀
##介
##浮
##紙
##健
##奴
##뎅
##姬
##序
##磁
##組
##露
##何
##깬
##刊
##旗
##솅
##∙
##シ
##峴
##貢
##贈
##ß
##み
##奏
##構
##â
##瞋
##虛
##述
##긁
##툭
##춧
##て
##毅
##迦
##鎬
##坡
##失
##維
##あ
##亞
##甘
##秉
##編
##뽕
##堅
##設
##꽉
##쇤
##썹
##£
##△
##盤
##県
##落
##퀵
##深
##施
##警
##뱉
##磨
##ñ
##忍
##獄
##紋
##팁
##崎
##揚
##渡
##置
##찐
##壁
##料
##階
##杜
##폄
##戱
##戸
##嗣
##振
##갠
##耶
##륄
##짤
##坊
##壤
##差
##́
##す
##墨
##殺
##泳
##鼓
##ı
##告
##潤
##熊
##鼎
##岐
##ド
##於
##速
##鬼
##텡
##カ
##マ
##勒
##當
##耳
##輝
##鹿
##兪
##干
##爭
##豫
##錢
##刀
##歷
##病
##規
##됭
##륀
##윳
##癡
##幸
##鐘
##د
##坂
##存
##灣
##背
##区
##惑
##稅
##芳
##葬
##街
##評
##휼
##勇
##宿
##弓
##賓
##댑
##켤
##ш
##ジ
##냇
##땜
##墳
##引
##段
##究
##홑
##з
##弟
##撰
##齡
##董
##與
##칵
##を
##享
##伽
##祚
##真
##米
##紹
##函
##舜
##徽
##燮
##랗
##샛
##峯
##症
##移
##謝
##秘
##際
##쉼
##얏
##伏
##쭈
##̊
##ᄅ
##株
##讀
##送
##つ
##冬
##壬
##步
##碩
##視
##導
##浪
##꿉
##춥
##텃
##れ
##慢
##卓
##活
##般
##配
##傅
##ᄃ
##ロ
##候
##檀
##χ
##疑
##빴
##吾
##熱
##賊
##庚
##也
##午
##奈
##專
##決
##率
##鳴
##닙
##묀
##숱
##え
##も
##唱
##꺽
##봅
##뽐
##フ
##唯
##篇
##俱
##庄
##쌈
##照
##貫
##頼
##ᄂ
##ᅳ
##兄
##微
##愚
##텟
##劍
##害
##肉
##障
##須
##ب
##央
##燈
##辭
##帥
##顔
##魔
##歲
##諡
##降
##勤
##撫
##鴻
##앳
##喪
##幕
##攝
##項
##å
##潭
##禧
##놔
##놨
##授
##標
##넋
##쏴
##伐
##薛
##血
##限
##좇
##튕
##卯
##班
##睿
##驪
##넵
##〕
##キ
##味
##潘
##綠
##胤
##깍
##쩐
##⟫
##彩
##旅
##豆
##⟪
##が
##レ
##模
##覆
##꼰
##뜩
##챕
##倫
##け
##匠
##級
##蹟
##釜
##땡
##쭤
##コ
##淮
##쌌
##〔
##是
##青
##箕
##而
##芝
##鬪
##줍
##ᄆ
##〜
##凉
##教
##算
##脫
##텁
##壯
##婦
##稷
##融
##숄
##寂
##岸
##逆
##쩡
##젼
##徵
##接
##材
##蜀
##裝
##関
##έ
##オ
##優
##柴
##頂
##ū
##請
##댔
##幹
##還
##邱
##뎃
##巫
##拳
##案
##油
##碧
##蔵
##讓
##햐
##─
##符
##묄
##森
##牙
##稱
##賞
##떴
##뢴
##ê
##ô
##創
##脈
##ø
##審
##破
##羊
##萊
##얗
##힝
##他
##著
##陣
##맙
##将
##敵
##曾
##舟
##ᄋ
##例
##強
##旌
##荊
##衍
##꿋
##쨩
##ή
##寒
##尺
##收
##査
##示
##韻
##빡
##숯
##█
##▲
##硏
##給
##賦
##亥
##跋
##쎄
##웡
##よ
##エ
##桃
##漁
##っ
##ノ
##槃
##爵
##畿
##ウ
##ミ
##仕
##展
##잿
##헹
##だ
##ニ
##婆
##広
##廢
##絶
##ć
##ō
##孤
##潮
##鍊
##菴
##č
##ナ
##堤
##賈
##ş
##実
##映
##橫
##軌
##附
##ц
##占
##幀
##拓
##옙
##サ
##濬
##救
##杉
##睦
##貨
##賴
##雍
##썽
##찜
##휜
##흄
##バ
##屯
##酉
##앎
##早
##祀
##覽
##탯
##栗
##涅
##站
##輿
##솝
##짊
##ᄇ
##愍
##朗
##終
##経
##赫
##鷄
##뎬
##헵
##□
##巳
##換
##談
##輕
##駐
##댜
##찹
##县
##牟
##遍
##꿩
##뻣
##ś
##塚
##巴
##彫
##必
##戊
##줏
##ع
##●
##澄
##蔚
##退
##듦
##컹
##包
##喆
##番
##蕭
##辨
##了
##仇
##妻
##毘
##砲
##齒
##去
##捨
##默
##鼻
##便
##複
##禍
##녘
##핥
##坪
##熟
##黎
##헷
##わ
##ャ
##尋
##牌
##腹
##荀
##虞
##じ
##で
##丈
##哀
##宝
##帖
##抄
##湯
##禎
##舌
##뤽
##뷸
##テ
##佑
##停
##幡
##癸
##縛
##밌
##價
##打
##菊
##遷
##隋
##冊
##彭
##敍
##殊
##胎
##衙
##ē
##་
##チ
##淡
##祝
##討
##숏
##옻
##ã
##昧
##着
##艦
##앴
##­
##ᄉ
##勅
##片
##額
##잰
##س
##丑
##뉠
##ハ
##召
##崖
##庸
##鎌
##굼
##궂
##넜
##י
##折
##梨
##渾
##租
##稿
##肖
##뺄
##や
##戴
##暴
##泥
##短
##駿
##æ
##裁
##朔
##桐
##놋
##쌔
##đ
##仰
##儉
##戌
##耆
##똘
##楽
##炎
##푀
##伴
##升
##幽
##曉
##筵
##註
##닳
##ύ
##ズ
##其
##擊
##整
##溝
##ィ
##万
##抗
##旭
##泗
##閑
##볜
##뵤
##底
##悟
##擇
##菜
##就
##消
##甁
##盡
##穴
##綾
##訴
##遂
##鄧
##펨
##蔣
##蕃
##鹽
##庾
##彰
##槐
##訪
##쥰
##ə
##ت
##晴
##郷
##볏
##∞
##穀
##雷
##탉
##ه
##グ
##珪
##砂
##迎
##魂
##姫
##宙
##扈
##荷
##藍
##갭
##귈
##쫒
##ば
##汗
##築
##絲
##黄
##덫
##乳
##卑
##卞
##及
##括
##核
##沃
##航
##눴
##卒
##塾
##按
##酸
##땃
##ゃ
##塘
##幢
##樣
##豪
##섣
##余
##倍
##店
##待
##漆
##笠
##鈴
##阮
##ᅵ
##沼
##被
##낵
##뎠
##乱
##供
##冀
##嫡
##杖
##枝
##突
##뀜
##券
##卽
##婚
##宴
##履
##沢
##濃
##費
##メ
##各
##范
##諭
##遇
##첵
##浚
##禦
##갬
##탸
##ă
##ガ
##乃
##堯
##壺
##測
##鉢
##鎔
##除
##윕
##ひ
##呪
##悲
##苑
##荒
##駕
##ム
##兆
##凡
##息
##拜
##暗
##氷
##烽
##툇
##悅
##態
##攻
##昊
##蟲
##軸
##采
##쁠
##毒
##믐
##씽
##ж
##ф
##亡
##排
##沖
##窟
##賣
##긱
##숴
##ᄌ
##效
##耕
##頓
##튤
##億
##勿
##喬
##炯
##矢
##薰
##跡
##鎮
##돤
##め
##尚
##緖
##係
##坤
##援
##認
##走
##閭
##飯
##눙
##傑
##卜
##垣
##獸
##課
##셧
##쳇
##헉
##ブ
##含
##培
##璋
##粉
##蒲
##謹
##馮
##껄
##ˈ
##僞
##奭
##席
##損
##播
##聚
##舒
##莫
##鏞
##頌
##샥
##↔
##ょ
##偏
##垂
##宏
##彈
##権
##渓
##넙
##텨
##プ
##忽
##答
##鷹
##맣
##챘
##ë
##ᄏ
##デ
##壓
##浜
##炭
##瞻
##蔭
##ろ
##眉
##謀
##輸
##髮
##괭
##듄
##뵐
##짬
##ف
##充
##慰
##戚
##羲
##鉄
##黒
##뚤
##욧
##펍
##≤
##床
##招
##晶
##迪
##숟
##쟝
##챤
##ð
##ق
##奥
##姚
##押
##混
##湘
##負
##買
##늉
##왠
##ψ
##э
##า
##冥
##投
##瀬
##繫
##肥
##迷
##븀
##빤
##씰
##푈
##似
##寛
##屠
##犬
##陟
##뷜
##팠
##ᄒ
##ヶ
##側
##吹
##戎
##為
##総
##覇
##豐
##껌
##떳
##뗀
##뷴
##텼
##低
##佳
##嶽
##急
##洗
##胞
##꼿
##셍
##モ
##强
##憂
##更
##浙
##災
##蜜
##팹
##ư
##ו
##び
##刹
##涉
##爐
##筑
##絃
##緯
##詔
##겜
##귓
##닻
##ה
##ど
##ツ
##パ
##哈
##忘
##掛
##探
##来
##沿
##灌
##銃
##阪
##韋
##왐
##付
##免
##冷
##寇
##幼
##揮
##樊
##顧
##괵
##젱
##짰
##ح
##そ
##忌
##悌
##梧
##譚
##ž
##ビ
##ョ
##乞
##只
##塵
##燧
##筒
##違
##龐
##땔
##뭘
##体
##寄
##慮
##瓦
##衝
##ダ
##伝
##堀
##渠
##潛
##甄
##驗
##ר
##ᅡ
##ュ
##伎
##呼
##晦
##瑜
##綬
##趣
##適
##鑄
##랸
##ワ
##婁
##歐
##苻
##갛
##뗏
##쪄
##챗
##ý
##ج
##ケ
##伸
##捕
##柔
##篆
##謨
##遮
##콸
##借
##幾
##廻
##束
##浅
##減
##쥴
##】
##云
##堡
##澈
##辦
##벰
##ò
##【
##ふ
##企
##参
##屈
##此
##渤
##襲
##訟
##諱
##쫄
##伺
##党
##奧
##娘
##斥
##架
##橘
##笑
##網
##膺
##ζ
##せ
##詳
##邉
##鳩
##ξ
##ἀ
##傷
##廊
##悼
##懸
##沒
##疾
##盜
##練
##裏
##零
##쬐
##屛
##彬
##従
##擬
##斤
##桑
##燒
##索
##耽
##賤
##遜
##ё
##凝
##往
##狂
##礙
##萱
##隣
##馨
##ی
##ず
##互
##峻
##弁
##昆
##猛
##箭
##纏
##蛇
##阜
##냑
##뭍
##ń
##圈
##燦
##琉
##祈
##票
##粹
##蒼
##갉
##ю
##ゆ
##妄
##拔
##犯
##窯
##綜
##샅
##ː
##ة
##倒
##円
##壞
##満
##珥
##綏
##閻
##險
##駒
##넝
##폿
##ğ
##أ
##丕
##勸
##厭
##婢
##寵
##旋
##獅
##琳
##祗
##綿
##閤
##鵬
##끽
##僖
##恪
##斬
##睡
##竿
##脚
##訥
##讚
##遣
##闕
##霞
##왑
##잽
##켠
##ï
##割
##又
##肩
##腸
##衿
##陜
##윷
##쿱
##々
##妓
##帽
##晟
##曜
##狄
##猿
##裴
##謠
##邵
##雕
##넸
##ա
##א
##ش
##偉
##奮
##帳
##怡
##悔
##昔
##瓊
##竺
##脩
##訣
##쳉
##횔
##ù
##ŋ
##„
##ね
##ァ
##幣
##璿
##皐
##競
##羌
##菌
##郁
##醮
##預
##ę
##ě
##ボ
##廬
##挺
##旦
##杭
##涼
##游
##溟
##滉
##雀
##®
##ᄎ
##东
##幻
##斜
##榜
##稽
##숑
##젭
##î
##ъ
##ェ
##圍
##已
##循
##檜
##繁
##翔
##芸
##誤
##趾
##鄴
##꾹
##씁
##힛
##ヤ
##劑
##圃
##弗
##杞
##疇
##観
##镇
##깟
##좨
